#include <cstdint>
alignas(4) inline constexpr uint8_t cwru_autoencoder_quant8_tflite[] = {
  0x20, 0x00, 0x00, 0x00, 0x54, 0x46, 0x4c, 0x33, 0x00, 0x00, 0x00, 0x00,
  0x14, 0x00, 0x20, 0x00, 0x1c, 0x00, 0x18, 0x00, 0x14, 0x00, 0x10, 0x00,
  0x0c, 0x00, 0x00, 0x00, 0x08, 0x00, 0x04, 0x00, 0x14, 0x00, 0x00, 0x00,
  0x1c, 0x00, 0x00, 0x00, 0x94, 0x00, 0x00, 0x00, 0xec, 0x00, 0x00, 0x00,
  0xf8, 0x0a, 0x00, 0x00, 0x08, 0x0b, 0x00, 0x00, 0xf4, 0x22, 0x00, 0x00,
  0x03, 0x00, 0x00, 0x00, 0x01, 0x00, 0x00, 0x00, 0x10, 0x00, 0x00, 0x00,
  0x00, 0x00, 0x0a, 0x00, 0x10, 0x00, 0x0c, 0x00, 0x08, 0x00, 0x04, 0x00,
  0x0a, 0x00, 0x00, 0x00, 0x0c, 0x00, 0x00, 0x00, 0x1c, 0x00, 0x00, 0x00,
  0x3c, 0x00, 0x00, 0x00, 0x0f, 0x00, 0x00, 0x00, 0x73, 0x65, 0x72, 0x76,
  0x69, 0x6e, 0x67, 0x5f, 0x64, 0x65, 0x66, 0x61, 0x75, 0x6c, 0x74, 0x00,
  0x01, 0x00, 0x00, 0x00, 0x04, 0x00, 0x00, 0x00, 0x94, 0xff, 0xff, 0xff,
  0x12, 0x00, 0x00, 0x00, 0x04, 0x00, 0x00, 0x00, 0x08, 0x00, 0x00, 0x00,
  0x6f, 0x75, 0x74, 0x70, 0x75, 0x74, 0x5f, 0x30, 0x00, 0x00, 0x00, 0x00,
  0x01, 0x00, 0x00, 0x00, 0x04, 0x00, 0x00, 0x00, 0xba, 0xf5, 0xff, 0xff,
  0x04, 0x00, 0x00, 0x00, 0x08, 0x00, 0x00, 0x00, 0x61, 0x65, 0x5f, 0x69,
  0x6e, 0x70, 0x75, 0x74, 0x00, 0x00, 0x00, 0x00, 0x02, 0x00, 0x00, 0x00,
  0x34, 0x00, 0x00, 0x00, 0x04, 0x00, 0x00, 0x00, 0xdc, 0xff, 0xff, 0xff,
  0x15, 0x00, 0x00, 0x00, 0x04, 0x00, 0x00, 0x00, 0x13, 0x00, 0x00, 0x00,
  0x43, 0x4f, 0x4e, 0x56, 0x45, 0x52, 0x53, 0x49, 0x4f, 0x4e, 0x5f, 0x4d,
  0x45, 0x54, 0x41, 0x44, 0x41, 0x54, 0x41, 0x00, 0x08, 0x00, 0x0c, 0x00,
  0x08, 0x00, 0x04, 0x00, 0x08, 0x00, 0x00, 0x00, 0x14, 0x00, 0x00, 0x00,
  0x04, 0x00, 0x00, 0x00, 0x13, 0x00, 0x00, 0x00, 0x6d, 0x69, 0x6e, 0x5f,
  0x72, 0x75, 0x6e, 0x74, 0x69, 0x6d, 0x65, 0x5f, 0x76, 0x65, 0x72, 0x73,
  0x69, 0x6f, 0x6e, 0x00, 0x16, 0x00, 0x00, 0x00, 0x08, 0x0a, 0x00, 0x00,
  0x00, 0x0a, 0x00, 0x00, 0xcc, 0x09, 0x00, 0x00, 0x94, 0x08, 0x00, 0x00,
  0x04, 0x08, 0x00, 0x00, 0xf4, 0x05, 0x00, 0x00, 0xa4, 0x05, 0x00, 0x00,
  0x54, 0x05, 0x00, 0x00, 0x34, 0x05, 0x00, 0x00, 0xe4, 0x04, 0x00, 0x00,
  0x94, 0x04, 0x00, 0x00, 0x84, 0x02, 0x00, 0x00, 0xf4, 0x01, 0x00, 0x00,
  0xc4, 0x00, 0x00, 0x00, 0xbc, 0x00, 0x00, 0x00, 0xb4, 0x00, 0x00, 0x00,
  0xac, 0x00, 0x00, 0x00, 0xa4, 0x00, 0x00, 0x00, 0x9c, 0x00, 0x00, 0x00,
  0x94, 0x00, 0x00, 0x00, 0x74, 0x00, 0x00, 0x00, 0x04, 0x00, 0x00, 0x00,
  0x8a, 0xf6, 0xff, 0xff, 0x04, 0x00, 0x00, 0x00, 0x60, 0x00, 0x00, 0x00,
  0x0c, 0x00, 0x00, 0x00, 0x08, 0x00, 0x0e, 0x00, 0x08, 0x00, 0x04, 0x00,
  0x08, 0x00, 0x00, 0x00, 0x10, 0x00, 0x00, 0x00, 0x28, 0x00, 0x00, 0x00,
  0x00, 0x00, 0x06, 0x00, 0x08, 0x00, 0x04, 0x00, 0x06, 0x00, 0x00, 0x00,
  0x04, 0x00, 0x00, 0x00, 0x01, 0x00, 0x00, 0x00, 0xeb, 0x03, 0x00, 0x00,
  0x0c, 0x00, 0x18, 0x00, 0x14, 0x00, 0x10, 0x00, 0x0c, 0x00, 0x04, 0x00,
  0x0c, 0x00, 0x00, 0x00, 0x19, 0xb1, 0x44, 0x6f, 0x48, 0x54, 0x59, 0x9f,
  0x02, 0x00, 0x00, 0x00, 0x02, 0x00, 0x00, 0x00, 0x04, 0x00, 0x00, 0x00,
  0x06, 0x00, 0x00, 0x00, 0x32, 0x2e, 0x32, 0x31, 0x2e, 0x30, 0x00, 0x00,
  0xf6, 0xf6, 0xff, 0xff, 0x04, 0x00, 0x00, 0x00, 0x10, 0x00, 0x00, 0x00,
  0x31, 0x2e, 0x31, 0x34, 0x2e, 0x30, 0x00, 0x00, 0x00, 0x00, 0x00, 0x00,
  0x00, 0x00, 0x00, 0x00, 0x54, 0xf6, 0xff, 0xff, 0x58, 0xf6, 0xff, 0xff,
  0x5c, 0xf6, 0xff, 0xff, 0x60, 0xf6, 0xff, 0xff, 0x64, 0xf6, 0xff, 0xff,
  0x68, 0xf6, 0xff, 0xff, 0x2a, 0xf7, 0xff, 0xff, 0x04, 0x00, 0x00, 0x00,
  0x20, 0x01, 0x00, 0x00, 0x3d, 0xde, 0xf5, 0xeb, 0x81, 0x61, 0x5e, 0x4b,
  0x10, 0xd9, 0x16, 0x23, 0x2b, 0xa5, 0xac, 0x15, 0xb4, 0x7f, 0x93, 0x7f,
  0x70, 0x14, 0xcd, 0x00, 0x2e, 0xe5, 0x6b, 0x9e, 0x89, 0xa2, 0xbe, 0xfe,
  0x81, 0x3d, 0x47, 0xe4, 0xcf, 0x24, 0xbf, 0x23, 0xf0, 0x7f, 0x3a, 0x9c,
  0x01, 0x37, 0xca, 0x21, 0x4c, 0x48, 0x7f, 0x4a, 0x20, 0xf9, 0x49, 0x28,
  0xe6, 0x68, 0x5e, 0x7f, 0x16, 0x43, 0x1f, 0x39, 0xd3, 0x0a, 0x02, 0x7f,
  0x7c, 0x2c, 0xcc, 0xff, 0xf7, 0xc4, 0x2e, 0x65, 0x7f, 0x66, 0x50, 0x11,
  0xc5, 0x33, 0xa9, 0x11, 0x27, 0xf9, 0xb0, 0xbd, 0x81, 0x29, 0x54, 0x48,
  0x2f, 0x97, 0x94, 0xe4, 0xff, 0x81, 0x92, 0x1c, 0x68, 0x52, 0x9a, 0x5f,
  0x7f, 0xe4, 0x69, 0x7f, 0x0c, 0x23, 0x12, 0x01, 0x8e, 0x9c, 0xb7, 0x81,
  0x52, 0x59, 0x07, 0xe9, 0xd2, 0xa2, 0x9d, 0x8c, 0x7f, 0x53, 0xd8, 0x0a,
  0x8a, 0x16, 0xf9, 0xdf, 0xa7, 0xbe, 0x81, 0x56, 0x59, 0x22, 0xc6, 0xf1,
  0x55, 0xcc, 0x45, 0x81, 0xed, 0x08, 0xc5, 0x4d, 0x6d, 0x1a, 0x03, 0x7f,
  0xf5, 0xc2, 0xcf, 0x52, 0xec, 0xf3, 0x5c, 0x1e, 0x7f, 0x02, 0x4b, 0x05,
  0x81, 0x14, 0xfd, 0xfe, 0xc8, 0x25, 0xc9, 0x23, 0x3d, 0x6d, 0x5e, 0x81,
  0x2e, 0x16, 0x0b, 0x02, 0x7c, 0xe8, 0xda, 0x5c, 0x00, 0x79, 0x7f, 0x14,
  0x13, 0x54, 0x81, 0xa1, 0x05, 0xea, 0x27, 0xe4, 0x21, 0xbd, 0x2b, 0x45,
  0xe2, 0xf4, 0x4f, 0xd9, 0x39, 0x1f, 0x7f, 0x55, 0x61, 0x13, 0x65, 0xe1,
  0x7f, 0xc7, 0xce, 0x6c, 0x17, 0x81, 0x8e, 0x3b, 0xdf, 0x31, 0x18, 0x9a,
  0x2d, 0x13, 0x7f, 0x13, 0xe3, 0x58, 0xe8, 0x22, 0x5c, 0x6b, 0xef, 0x7f,
  0x43, 0x1e, 0x6b, 0xa3, 0xbc, 0x9c, 0xe7, 0x6d, 0x7f, 0x8f, 0x23, 0x54,
  0xb3, 0xc2, 0xdd, 0x15, 0x6f, 0x81, 0x6b, 0x00, 0x54, 0x8a, 0xe5, 0x85,
  0x48, 0xe4, 0xd2, 0x76, 0x82, 0x9c, 0xa5, 0x81, 0xca, 0x0b, 0xbe, 0x1e,
  0x41, 0x7f, 0x4c, 0x4f, 0x34, 0x0f, 0x18, 0x48, 0x47, 0x7f, 0xb5, 0xd4,
  0x5b, 0x4b, 0x2a, 0xf6, 0x56, 0xf8, 0xff, 0xff, 0x04, 0x00, 0x00, 0x00,
  0x80, 0x00, 0x00, 0x00, 0x08, 0x13, 0x00, 0x00, 0x12, 0x12, 0x00, 0x00,
  0x19, 0xfd, 0xff, 0xff, 0xb1, 0xfb, 0xff, 0xff, 0x7b, 0xf9, 0xff, 0xff,
  0x09, 0x02, 0x00, 0x00, 0x6e, 0x00, 0x00, 0x00, 0xcf, 0x04, 0x00, 0x00,
  0xd5, 0x01, 0x00, 0x00, 0x84, 0x04, 0x00, 0x00, 0x58, 0x07, 0x00, 0x00,
  0x7d, 0x03, 0x00, 0x00, 0x54, 0x09, 0x00, 0x00, 0xff, 0x07, 0x00, 0x00,
  0x75, 0xfd, 0xff, 0xff, 0x03, 0x16, 0x00, 0x00, 0xb9, 0xfa, 0xff, 0xff,
  0x7f, 0xfb, 0xff, 0xff, 0x77, 0x01, 0x00, 0x00, 0x5f, 0x08, 0x00, 0x00,
  0x55, 0x01, 0x00, 0x00, 0xad, 0x01, 0x00, 0x00, 0xb0, 0x01, 0x00, 0x00,
  0xb3, 0x02, 0x00, 0x00, 0x4d, 0x00, 0x00, 0x00, 0x3f, 0x02, 0x00, 0x00,
  0x04, 0x09, 0x00, 0x00, 0x5b, 0x14, 0x00, 0x00, 0xe3, 0x0f, 0x00, 0x00,
  0xc4, 0xfd, 0xff, 0xff, 0xf4, 0xfe, 0xff, 0xff, 0xf1, 0xff, 0xff, 0xff,
  0xe2, 0xf8, 0xff, 0xff, 0x04, 0x00, 0x00, 0x00, 0x00, 0x02, 0x00, 0x00,
  0xb0, 0xf9, 0xc6, 0x54, 0x81, 0xd3, 0x3d, 0x48, 0xe3, 0xba, 0x3a, 0xa8,
  0xc1, 0xd5, 0x1c, 0xeb, 0x9d, 0x03, 0x05, 0x03, 0xb3, 0xba, 0xb7, 0xbb,
  0xf3, 0xfe, 0x0e, 0xba, 0x19, 0xc8, 0x8e, 0xfc, 0x7f, 0x47, 0xd8, 0x02,
  0xce, 0x52, 0x2b, 0xdd, 0x0a, 0x05, 0xff, 0x17, 0xf2, 0x4a, 0xc3, 0x01,
  0x5c, 0x5a, 0xe6, 0x3a, 0x6e, 0x59, 0xfd, 0x4f, 0x11, 0x5d, 0xf2, 0xf3,
  0x3e, 0xd3, 0xe8, 0xf2, 0x32, 0x2e, 0x58, 0xe5, 0xb1, 0x3d, 0x89, 0xb7,
  0x04, 0xe6, 0x04, 0x00, 0x17, 0x57, 0x32, 0xb8, 0x5b, 0x3c, 0x1e, 0x1b,
  0x1d, 0xb5, 0xc9, 0x55, 0xf7, 0xd2, 0x81, 0x3e, 0x3c, 0xaa, 0x98, 0x42,
  0x50, 0xab, 0xb7, 0xb8, 0x84, 0x8a, 0xd3, 0x38, 0x44, 0xde, 0x20, 0x34,
  0x7f, 0xbc, 0xb7, 0x41, 0x2b, 0x90, 0xf3, 0x3d, 0x51, 0x20, 0x5f, 0x77,
  0x6f, 0x29, 0x4c, 0x51, 0xcb, 0x4a, 0x35, 0xb9, 0x11, 0x3b, 0x47, 0x15,
  0xb1, 0x6b, 0xf3, 0xe7, 0x79, 0xfd, 0xae, 0x23, 0x03, 0x36, 0xc9, 0x60,
  0x3c, 0x70, 0x65, 0xe5, 0x03, 0x33, 0x7f, 0xbb, 0xe4, 0xfd, 0xfa, 0x63,
  0xdb, 0xfd, 0xf1, 0x14, 0xd5, 0xb1, 0xd3, 0x5c, 0x55, 0xed, 0xc5, 0xa2,
  0xbe, 0xc8, 0xdb, 0xd2, 0xe7, 0x5a, 0x76, 0x81, 0x31, 0x4c, 0xc9, 0x9a,
  0x38, 0xd6, 0xa5, 0x6b, 0xef, 0x0a, 0xcc, 0x08, 0x99, 0x8b, 0x19, 0xd1,
  0x06, 0xcd, 0x0a, 0x63, 0x03, 0x34, 0x5b, 0x85, 0x4a, 0xf2, 0xc5, 0xd3,
  0xec, 0x15, 0x3f, 0xe8, 0x51, 0x3d, 0x3c, 0x40, 0xe8, 0x81, 0x28, 0xdb,
  0xf1, 0xaa, 0x89, 0x00, 0xf5, 0xbe, 0x53, 0x5a, 0x2a, 0x0c, 0xfa, 0x38,
  0x49, 0x26, 0x46, 0x1b, 0x71, 0x6c, 0x14, 0x05, 0x51, 0xd3, 0x61, 0xc8,
  0xde, 0xc4, 0xf7, 0x19, 0x37, 0x7f, 0xff, 0xfb, 0x35, 0xfa, 0x63, 0xe2,
  0x22, 0x44, 0xcf, 0xea, 0x1a, 0xcf, 0x7f, 0x0d, 0x50, 0xce, 0x62, 0xb6,
  0xed, 0x41, 0x17, 0x48, 0x29, 0xfb, 0xd0, 0x0a, 0xf3, 0xf1, 0xcd, 0xdc,
  0x0e, 0x1c, 0x4f, 0x12, 0x55, 0x06, 0xdc, 0xaa, 0xde, 0x09, 0x31, 0x19,
  0x43, 0x73, 0xc5, 0xe7, 0xf2, 0x1e, 0xe6, 0x5d, 0x66, 0x29, 0x62, 0x25,
  0x2d, 0x46, 0x17, 0x78, 0x45, 0xef, 0x71, 0xdb, 0x62, 0x0f, 0x31, 0x51,
  0x38, 0x1d, 0xdf, 0x7f, 0x44, 0xa6, 0x63, 0xdc, 0x4b, 0x7f, 0x3b, 0xdf,
  0xf5, 0x1e, 0xce, 0xe9, 0x1f, 0x3c, 0x57, 0xe2, 0x3b, 0x3e, 0x3f, 0xe3,
  0xce, 0x23, 0x0c, 0xae, 0x08, 0xbc, 0x4b, 0x4a, 0xf2, 0x58, 0xe1, 0x7d,
  0xea, 0xf0, 0x64, 0x2d, 0xdb, 0xe9, 0x21, 0x4a, 0xd6, 0xb4, 0xb6, 0x14,
  0xa6, 0xd2, 0x27, 0x20, 0x58, 0x6b, 0x13, 0xe6, 0x2a, 0xe4, 0x0c, 0x47,
  0x52, 0xc9, 0xac, 0x81, 0x08, 0x2c, 0xbc, 0x0d, 0xe7, 0x26, 0x36, 0x18,
  0xf2, 0x51, 0x6e, 0x17, 0xf2, 0x13, 0xe5, 0x8d, 0xe4, 0x0b, 0x02, 0xce,
  0x6c, 0x04, 0xc3, 0xce, 0x95, 0x19, 0x61, 0xe5, 0x4f, 0x05, 0xc2, 0xb8,
  0x47, 0x5b, 0xab, 0x5f, 0x7f, 0xcf, 0xb7, 0xc9, 0x35, 0x18, 0xf5, 0x28,
  0x1f, 0x70, 0x29, 0x54, 0xd1, 0x1c, 0x62, 0xcf, 0x05, 0x4e, 0x93, 0x5c,
  0xbd, 0x0d, 0x13, 0x13, 0x64, 0xf1, 0x2b, 0x20, 0xd9, 0xbf, 0x5e, 0x7f,
  0x5d, 0x35, 0xbb, 0x11, 0x5e, 0xea, 0x0b, 0xf9, 0xf7, 0x44, 0x50, 0x06,
  0x14, 0x32, 0x50, 0xee, 0x33, 0x3b, 0x20, 0x3f, 0xf2, 0xb5, 0x69, 0x3d,
  0x17, 0x4e, 0x49, 0xf5, 0xf7, 0xd0, 0xd1, 0x72, 0x7f, 0x0b, 0xcf, 0x39,
  0x36, 0x58, 0xb9, 0x4a, 0xbe, 0xe7, 0x1e, 0xe2, 0x08, 0x34, 0x0d, 0x3e,
  0x13, 0x65, 0x3b, 0x5f, 0x3b, 0x24, 0x23, 0xf2, 0x3a, 0x7f, 0x36, 0xe4,
  0x23, 0xe4, 0xee, 0x0c, 0xfe, 0x39, 0x0b, 0xca, 0xee, 0xfa, 0xff, 0xff,
  0x04, 0x00, 0x00, 0x00, 0x40, 0x00, 0x00, 0x00, 0x72, 0xff, 0xff, 0xff,
  0xce, 0x05, 0x00, 0x00, 0xd7, 0xfd, 0xff, 0xff, 0x3e, 0x02, 0x00, 0x00,
  0x7e, 0x08, 0x00, 0x00, 0x7c, 0xfe, 0xff, 0xff, 0x88, 0xfa, 0xff, 0xff,
  0xe3, 0x08, 0x00, 0x00, 0x3d, 0x04, 0x00, 0x00, 0xc7, 0x06, 0x00, 0x00,
  0xa8, 0x07, 0x00, 0x00, 0xf1, 0xfd, 0xff, 0xff, 0xf5, 0x00, 0x00, 0x00,
  0x0d, 0x08, 0x00, 0x00, 0x36, 0x05, 0x00, 0x00, 0xae, 0x02, 0x00, 0x00,
  0x3a, 0xfb, 0xff, 0xff, 0x04, 0x00, 0x00, 0x00, 0x40, 0x00, 0x00, 0x00,
  0xa5, 0xf6, 0xd2, 0xe0, 0xbf, 0xe1, 0xc7, 0x6b, 0xe2, 0x7f, 0xe4, 0xa4,
  0x2e, 0xfe, 0x31, 0xd3, 0x5b, 0x01, 0x9a, 0x1b, 0xfb, 0x22, 0x99, 0xed,
  0xde, 0x00, 0x32, 0xfb, 0x5c, 0x40, 0x5d, 0x7f, 0xbe, 0x6e, 0xbe, 0xe6,
  0x36, 0xb7, 0x39, 0xdf, 0xe1, 0x7f, 0xa8, 0xc4, 0xfd, 0xfc, 0x40, 0xfc,
  0x3c, 0x41, 0xb4, 0x29, 0x1e, 0x81, 0xdf, 0xfc, 0x30, 0x2a, 0x5c, 0xe4,
  0x45, 0x6d, 0x47, 0xa9, 0x86, 0xfb, 0xff, 0xff, 0x04, 0x00, 0x00, 0x00,
  0x10, 0x00, 0x00, 0x00, 0xb2, 0x03, 0x00, 0x00, 0xce, 0x01, 0x00, 0x00,
  0x19, 0x01, 0x00, 0x00, 0x71, 0x01, 0x00, 0x00, 0xa2, 0xfb, 0xff, 0xff,
  0x04, 0x00, 0x00, 0x00, 0x40, 0x00, 0x00, 0x00, 0xda, 0x7f, 0xa9, 0x48,
  0x81, 0x42, 0x69, 0x48, 0xc2, 0xc9, 0x7f, 0x6e, 0xc0, 0x5a, 0x7f, 0xc5,
  0xeb, 0x39, 0x7f, 0x4b, 0x7f, 0x1e, 0x20, 0xe9, 0xcc, 0xaa, 0x7f, 0xb8,
  0xdb, 0xe1, 0x7f, 0xe5, 0x7f, 0x1e, 0xaf, 0x5e, 0x7f, 0x19, 0x14, 0x20,
  0xc2, 0x7f, 0x82, 0xe2, 0xb3, 0x18, 0x24, 0x7f, 0xca, 0xb7, 0xb6, 0x7f,
  0xe8, 0x7f, 0xa5, 0x69, 0x03, 0x7f, 0x0f, 0xd9, 0x81, 0x44, 0x1e, 0x04,
  0xee, 0xfb, 0xff, 0xff, 0x04, 0x00, 0x00, 0x00, 0x40, 0x00, 0x00, 0x00,
  0x5b, 0x03, 0x00, 0x00, 0xcb, 0xfd, 0xff, 0xff, 0x2d, 0x00, 0x00, 0x00,
  0x69, 0x01, 0x00, 0x00, 0xee, 0x02, 0x00, 0x00, 0x45, 0xff, 0xff, 0xff,
  0x32, 0x0b, 0x00, 0x00, 0x63, 0x01, 0x00, 0x00, 0x24, 0x02, 0x00, 0x00,
  0x62, 0x01, 0x00, 0x00, 0xf9, 0x04, 0x00, 0x00, 0x75, 0xfc, 0xff, 0xff,
  0x1e, 0x04, 0x00, 0x00, 0x87, 0xfe, 0xff, 0xff, 0xee, 0x00, 0x00, 0x00,
  0xaa, 0x01, 0x00, 0x00, 0x3a, 0xfc, 0xff, 0xff, 0x04, 0x00, 0x00, 0x00,
  0x00, 0x02, 0x00, 0x00, 0x1c, 0x44, 0xdb, 0xd7, 0x23, 0xb2, 0x14, 0x10,
  0x66, 0xdb, 0x25, 0xd3, 0xeb, 0x27, 0xb7, 0x7f, 0x72, 0xd1, 0x2a, 0x4e,
  0x8d, 0x44, 0x7f, 0x8f, 0xbf, 0xa3, 0x36, 0x14, 0x35, 0x10, 0x90, 0x93,
  0x1d, 0x4c, 0x65, 0x81, 0xf4, 0xb9, 0x3e, 0xb0, 0x1b, 0x74, 0x1a, 0x33,
  0xc1, 0x32, 0x32, 0xc2, 0x13, 0x36, 0xf2, 0x7f, 0x11, 0xde, 0x67, 0xdf,
  0xd3, 0x09, 0x44, 0xf0, 0x4f, 0x04, 0x27, 0x1b, 0xc5, 0x3a, 0x9a, 0x26,
  0xde, 0xba, 0x0a, 0x37, 0x52, 0x3b, 0x5f, 0x58, 0xa0, 0x71, 0x62, 0x7f,
  0xf8, 0x01, 0x7f, 0xef, 0x6e, 0xca, 0x3c, 0x41, 0x50, 0xe7, 0xb0, 0x52,
  0x45, 0x04, 0x40, 0x4c, 0x79, 0x2c, 0xfd, 0xab, 0x50, 0xe7, 0xd5, 0x2e,
  0x3e, 0xd6, 0x85, 0x81, 0xab, 0x54, 0xe3, 0x1c, 0xe8, 0xf5, 0x21, 0xec,
  0x60, 0x7f, 0x39, 0x23, 0x65, 0x65, 0x0e, 0xb4, 0xd9, 0xdd, 0xa9, 0xf0,
  0xe3, 0xe6, 0x67, 0x89, 0xa2, 0x08, 0x72, 0x68, 0x32, 0xe5, 0xd2, 0x06,
  0xb7, 0xc7, 0x81, 0x9c, 0x6c, 0xaa, 0xca, 0xe0, 0xa9, 0xac, 0x21, 0xa0,
  0x7a, 0xf2, 0xf3, 0xe8, 0x81, 0xfd, 0xc6, 0xb3, 0x08, 0x9d, 0xb9, 0x81,
  0x87, 0xce, 0xda, 0x47, 0xb4, 0x8a, 0x81, 0xfa, 0xdd, 0x41, 0x41, 0xea,
  0x5c, 0x5e, 0x81, 0xd3, 0xe0, 0x26, 0x04, 0x25, 0xea, 0xb7, 0x49, 0x2e,
  0xe8, 0xfe, 0x9b, 0xb3, 0x5c, 0x98, 0xcc, 0x92, 0x17, 0xe8, 0x3c, 0x7f,
  0x73, 0xdd, 0x5a, 0x4d, 0x7e, 0xd3, 0x0f, 0x14, 0x48, 0xd2, 0xbf, 0x08,
  0x1c, 0xfd, 0x0b, 0xfb, 0x0d, 0x29, 0x8f, 0x34, 0xcd, 0x3a, 0x7f, 0xfa,
  0xd8, 0x49, 0xd7, 0x6a, 0xd1, 0x5f, 0x2b, 0xb5, 0x7f, 0x39, 0x42, 0x09,
  0xf8, 0xd7, 0x73, 0x44, 0x47, 0x0b, 0xf9, 0xe3, 0xf2, 0x19, 0x7f, 0xb5,
  0xda, 0xeb, 0x16, 0xc3, 0x1c, 0x2a, 0x37, 0xf4, 0x2f, 0x6b, 0x08, 0xbb,
  0x3a, 0xfa, 0x9c, 0x81, 0x52, 0x11, 0xa7, 0x65, 0xff, 0x5d, 0xb6, 0xb8,
  0xe6, 0xbd, 0x16, 0xfb, 0x00, 0x7f, 0x3b, 0x3c, 0x56, 0x1d, 0x0f, 0xe3,
  0xdc, 0xff, 0x29, 0x1b, 0x16, 0x1b, 0xbb, 0xfe, 0x2b, 0xff, 0xbb, 0xd6,
  0x10, 0xd3, 0xd2, 0x4c, 0x81, 0x3b, 0x42, 0x22, 0x81, 0x1b, 0x30, 0x69,
  0x86, 0xb8, 0x8f, 0x6e, 0x6e, 0x41, 0x31, 0x98, 0x01, 0x9b, 0x32, 0x03,
  0xce, 0x05, 0x37, 0xd4, 0xb5, 0xc5, 0x39, 0x93, 0x9e, 0xcc, 0x7f, 0x2c,
  0x18, 0xad, 0xc2, 0x81, 0x2f, 0x28, 0xe2, 0x87, 0x57, 0xc3, 0x3d, 0x19,
  0x69, 0x2e, 0x3a, 0xc0, 0x7f, 0x14, 0x9a, 0xb9, 0x13, 0xfd, 0xfb, 0xed,
  0xb0, 0xd1, 0xea, 0x9c, 0x66, 0x8b, 0x6a, 0x68, 0x21, 0x81, 0x5d, 0x98,
  0x2a, 0x47, 0x54, 0x26, 0x8b, 0x49, 0x7d, 0xf4, 0x9f, 0x31, 0xbc, 0x81,
  0xb7, 0x6e, 0x95, 0x20, 0x57, 0x05, 0xb0, 0x81, 0xe1, 0x46, 0x53, 0x0a,
  0xe7, 0x6a, 0xee, 0x56, 0x2a, 0x4a, 0x3f, 0xa6, 0x74, 0xd8, 0xee, 0xe0,
  0xc9, 0x43, 0xd0, 0xf1, 0x7f, 0xf2, 0xd9, 0xe4, 0x65, 0x17, 0xba, 0x05,
  0x1f, 0xa8, 0xd1, 0xd1, 0x23, 0xf8, 0x58, 0x31, 0xee, 0x39, 0x7f, 0xbe,
  0x1e, 0xef, 0x47, 0x1a, 0xf7, 0xf9, 0xc2, 0xe0, 0x0c, 0x9a, 0x7f, 0xe5,
  0x15, 0xd7, 0x36, 0x04, 0x33, 0xd2, 0x37, 0x5d, 0x85, 0x86, 0xf3, 0xb8,
  0x9a, 0xa4, 0x81, 0xe3, 0x38, 0xb8, 0x07, 0x03, 0x37, 0xcc, 0x60, 0xb2,
  0x91, 0x81, 0xf3, 0x1d, 0xa8, 0xc6, 0x07, 0x91, 0x76, 0xa1, 0x96, 0x65,
  0xcb, 0x31, 0xa6, 0x6e, 0xb7, 0x58, 0x42, 0xdc, 0x19, 0x2c, 0xa3, 0x00,
  0x2f, 0x21, 0x81, 0x65, 0xed, 0x19, 0x05, 0xe3, 0xfb, 0x0b, 0x2c, 0x45,
  0x5f, 0xc5, 0x7f, 0x3a, 0xca, 0x29, 0x49, 0xf7, 0x25, 0xca, 0xd8, 0x42,
  0x46, 0xfe, 0xff, 0xff, 0x04, 0x00, 0x00, 0x00, 0x80, 0x00, 0x00, 0x00,
  0x1d, 0x02, 0x00, 0x00, 0x4d, 0xff, 0xff, 0xff, 0x52, 0x00, 0x00, 0x00,
  0x16, 0x03, 0x00, 0x00, 0x31, 0x00, 0x00, 0x00, 0x03, 0xfe, 0xff, 0xff,
  0xc5, 0xfd, 0xff, 0xff, 0x45, 0x03, 0x00, 0x00, 0x00, 0x00, 0x00, 0x00,
  0x00, 0x00, 0x00, 0x00, 0x00, 0x00, 0x00, 0x00, 0xb0, 0xfe, 0xff, 0xff,
  0x88, 0x07, 0x00, 0x00, 0xc3, 0xfd, 0xff, 0xff, 0x86, 0x01, 0x00, 0x00,
  0xbb, 0x01, 0x00, 0x00, 0x00, 0xfe, 0xff, 0xff, 0x05, 0x02, 0x00, 0x00,
  0x48, 0xfe, 0xff, 0xff, 0xf5, 0xfe, 0xff, 0xff, 0x00, 0x00, 0x00, 0x00,
  0xf9, 0x03, 0x00, 0x00, 0x27, 0x00, 0x00, 0x00, 0x59, 0xff, 0xff, 0xff,
  0x47, 0xff, 0xff, 0xff, 0xb5, 0xfd, 0xff, 0xff, 0x08, 0x03, 0x00, 0x00,
  0x60, 0x03, 0x00, 0x00, 0xdf, 0xff, 0xff, 0xff, 0x00, 0x00, 0x00, 0x00,
  0x49, 0xff, 0xff, 0xff, 0x15, 0x03, 0x00, 0x00, 0xd2, 0xfe, 0xff, 0xff,
  0x04, 0x00, 0x00, 0x00, 0x20, 0x01, 0x00, 0x00, 0xdf, 0x4a, 0x32, 0xae,
  0xe4, 0x37, 0x42, 0xc3, 0x04, 0x2c, 0xde, 0x0c, 0x81, 0x43, 0x27, 0xcc,
  0x44, 0xcc, 0x64, 0xbd, 0x13, 0xa3, 0xed, 0xe6, 0xdc, 0xf2, 0xb2, 0x85,
  0x4c, 0xc7, 0x67, 0xa0, 0x54, 0xb5, 0x68, 0xf3, 0x12, 0x47, 0x18, 0xbd,
  0x49, 0xe8, 0xd9, 0xc3, 0x68, 0xd3, 0xf0, 0x19, 0xe8, 0x81, 0xaf, 0x34,
  0x9d, 0x2d, 0xdf, 0xe3, 0x06, 0x27, 0xb7, 0xab, 0x18, 0x5d, 0x56, 0x03,
  0x34, 0x4e, 0xf8, 0xf6, 0x29, 0x16, 0x4e, 0xdf, 0x19, 0x13, 0x32, 0x3d,
  0x34, 0xeb, 0x81, 0xfe, 0x43, 0xe3, 0xf9, 0x4a, 0xb8, 0x36, 0xb7, 0x15,
  0x29, 0x08, 0x91, 0xcb, 0xb5, 0xca, 0xf6, 0x38, 0xcd, 0xc8, 0xf4, 0xdd,
  0xc9, 0x41, 0xe4, 0x49, 0xdb, 0xec, 0x37, 0x15, 0xc4, 0xd4, 0xf3, 0x3f,
  0x21, 0x37, 0xbb, 0x18, 0xdb, 0xff, 0x1d, 0x40, 0x37, 0x27, 0xba, 0x81,
  0xf9, 0x13, 0xe3, 0x13, 0xcd, 0x57, 0x0d, 0xd5, 0xd6, 0x5b, 0x30, 0x06,
  0x22, 0x34, 0x52, 0xef, 0x3a, 0x9e, 0x2a, 0x88, 0x08, 0x69, 0xbd, 0xfb,
  0xa6, 0xd3, 0x5e, 0xa3, 0x96, 0xe5, 0x05, 0x7f, 0xc7, 0x3a, 0x45, 0xd8,
  0x38, 0xfd, 0xb1, 0xb5, 0x96, 0xfc, 0xd0, 0x7f, 0x9b, 0xeb, 0xc2, 0xa0,
  0xf5, 0xe3, 0x66, 0x9a, 0xe9, 0xd5, 0xf8, 0xba, 0x5d, 0x20, 0x38, 0x1c,
  0xbb, 0x07, 0x00, 0x49, 0xf7, 0x1d, 0x58, 0x13, 0xe8, 0xa7, 0x48, 0x00,
  0xa9, 0xc8, 0xc8, 0xe0, 0x47, 0x1b, 0x45, 0x22, 0xf2, 0x31, 0xa0, 0xd2,
  0x6f, 0xea, 0x9c, 0x1a, 0xb7, 0x6e, 0x9d, 0x0b, 0xe1, 0x81, 0x22, 0x06,
  0xc3, 0xa2, 0x7c, 0x40, 0xf7, 0xc7, 0xe2, 0x7f, 0x2f, 0x47, 0xef, 0xf1,
  0xb3, 0x50, 0xe9, 0xad, 0xea, 0x2b, 0xd4, 0xfc, 0xe9, 0xc1, 0xe9, 0xad,
  0x44, 0xc1, 0xbb, 0xe9, 0xbf, 0xdb, 0xc4, 0xf8, 0x04, 0xe2, 0xc8, 0x70,
  0x54, 0xfb, 0x61, 0xd8, 0x2c, 0xea, 0x27, 0x90, 0xc2, 0x2e, 0x2d, 0xbb,
  0xce, 0xe0, 0x84, 0xb4, 0x58, 0xe4, 0x23, 0xe2, 0x56, 0x5e, 0x4a, 0x51,
  0x5e, 0x46, 0xe9, 0x7f, 0xd3, 0x0c, 0xf7, 0x5a, 0x00, 0x00, 0x06, 0x00,
  0x08, 0x00, 0x04, 0x00, 0x06, 0x00, 0x00, 0x00, 0x04, 0x00, 0x00, 0x00,
  0x24, 0x00, 0x00, 0x00, 0xb7, 0xf9, 0xff, 0xff, 0x9f, 0x00, 0x00, 0x00,
  0x3f, 0xfd, 0xff, 0xff, 0xc5, 0xff, 0xff, 0xff, 0xf1, 0x02, 0x00, 0x00,
  0xaf, 0x02, 0x00, 0x00, 0x5a, 0x01, 0x00, 0x00, 0x82, 0x02, 0x00, 0x00,
  0xcb, 0xfc, 0xff, 0xff, 0x78, 0xff, 0xff, 0xff, 0x7c, 0xff, 0xff, 0xff,
  0x0f, 0x00, 0x00, 0x00, 0x4d, 0x4c, 0x49, 0x52, 0x20, 0x43, 0x6f, 0x6e,
  0x76, 0x65, 0x72, 0x74, 0x65, 0x64, 0x2e, 0x00, 0x01, 0x00, 0x00, 0x00,
  0x14, 0x00, 0x00, 0x00, 0x00, 0x00, 0x0e, 0x00, 0x18, 0x00, 0x14, 0x00,
  0x10, 0x00, 0x0c, 0x00, 0x08, 0x00, 0x04, 0x00, 0x0e, 0x00, 0x00, 0x00,
  0x14, 0x00, 0x00, 0x00, 0x1c, 0x00, 0x00, 0x00, 0x94, 0x01, 0x00, 0x00,
  0x98, 0x01, 0x00, 0x00, 0x9c, 0x01, 0x00, 0x00, 0x04, 0x00, 0x00, 0x00,
  0x6d, 0x61, 0x69, 0x6e, 0x00, 0x00, 0x00, 0x00, 0x06, 0x00, 0x00, 0x00,
  0x3c, 0x01, 0x00, 0x00, 0xf4, 0x00, 0x00, 0x00, 0xac, 0x00, 0x00, 0x00,
  0x74, 0x00, 0x00, 0x00, 0x3c, 0x00, 0x00, 0x00, 0x04, 0x00, 0x00, 0x00,
  0x2e, 0xff, 0xff, 0xff, 0x14, 0x00, 0x00, 0x00, 0x00, 0x00, 0x00, 0x08,
  0x10, 0x00, 0x00, 0x00, 0x14, 0x00, 0x00, 0x00, 0x04, 0x00, 0x04, 0x00,
  0x04, 0x00, 0x00, 0x00, 0x01, 0x00, 0x00, 0x00, 0x12, 0x00, 0x00, 0x00,
  0x03, 0x00, 0x00, 0x00, 0x11, 0x00, 0x00, 0x00, 0x02, 0x00, 0x00, 0x00,
  0x01, 0x00, 0x00, 0x00, 0x62, 0xff, 0xff, 0xff, 0x10, 0x00, 0x00, 0x00,
  0x00, 0x00, 0x00, 0x08, 0x10, 0x00, 0x00, 0x00, 0x14, 0x00, 0x00, 0x00,
  0x0e, 0xff, 0xff, 0xff, 0x00, 0x00, 0x00, 0x01, 0x01, 0x00, 0x00, 0x00,
  0x11, 0x00, 0x00, 0x00, 0x03, 0x00, 0x00, 0x00, 0x10, 0x00, 0x00, 0x00,
  0x04, 0x00, 0x00, 0x00, 0x03, 0x00, 0x00, 0x00, 0x96, 0xff, 0xff, 0xff,
  0x10, 0x00, 0x00, 0x00, 0x00, 0x00, 0x00, 0x08, 0x10, 0x00, 0x00, 0x00,
  0x14, 0x00, 0x00, 0x00, 0x42, 0xff, 0xff, 0xff, 0x00, 0x00, 0x00, 0x01,
  0x01, 0x00, 0x00, 0x00, 0x10, 0x00, 0x00, 0x00, 0x03, 0x00, 0x00, 0x00,
  0x0f, 0x00, 0x00, 0x00, 0x06, 0x00, 0x00, 0x00, 0x05, 0x00, 0x00, 0x00,
  0xca, 0xff, 0xff, 0xff, 0x10, 0x00, 0x00, 0x00, 0x00, 0x00, 0x00, 0x08,
  0x10, 0x00, 0x00, 0x00, 0x14, 0x00, 0x00, 0x00, 0x76, 0xff, 0xff, 0xff,
  0x00, 0x00, 0x00, 0x01, 0x01, 0x00, 0x00, 0x00, 0x0f, 0x00, 0x00, 0x00,
  0x03, 0x00, 0x00, 0x00, 0x0e, 0x00, 0x00, 0x00, 0x08, 0x00, 0x00, 0x00,
  0x07, 0x00, 0x00, 0x00, 0x00, 0x00, 0x0e, 0x00, 0x14, 0x00, 0x00, 0x00,
  0x10, 0x00, 0x0c, 0x00, 0x0b, 0x00, 0x04, 0x00, 0x0e, 0x00, 0x00, 0x00,
  0x10, 0x00, 0x00, 0x00, 0x00, 0x00, 0x00, 0x08, 0x10, 0x00, 0x00, 0x00,
  0x14, 0x00, 0x00, 0x00, 0xba, 0xff, 0xff, 0xff, 0x00, 0x00, 0x00, 0x01,
  0x01, 0x00, 0x00, 0x00, 0x0e, 0x00, 0x00, 0x00, 0x03, 0x00, 0x00, 0x00,
  0x0d, 0x00, 0x00, 0x00, 0x0a, 0x00, 0x00, 0x00, 0x09, 0x00, 0x00, 0x00,
  0x00, 0x00, 0x0e, 0x00, 0x16, 0x00, 0x00, 0x00, 0x10, 0x00, 0x0c, 0x00,
  0x0b, 0x00, 0x04, 0x00, 0x0e, 0x00, 0x00, 0x00, 0x18, 0x00, 0x00, 0x00,
  0x00, 0x00, 0x00, 0x08, 0x18, 0x00, 0x00, 0x00, 0x1c, 0x00, 0x00, 0x00,
  0x00, 0x00, 0x06, 0x00, 0x08, 0x00, 0x07, 0x00, 0x06, 0x00, 0x00, 0x00,
  0x00, 0x00, 0x00, 0x01, 0x01, 0x00, 0x00, 0x00, 0x0d, 0x00, 0x00, 0x00,
  0x03, 0x00, 0x00, 0x00, 0x00, 0x00, 0x00, 0x00, 0x0c, 0x00, 0x00, 0x00,
  0x0b, 0x00, 0x00, 0x00, 0x01, 0x00, 0x00, 0x00, 0x12, 0x00, 0x00, 0x00,
  0x01, 0x00, 0x00, 0x00, 0x00, 0x00, 0x00, 0x00, 0x13, 0x00, 0x00, 0x00,
  0xa0, 0x15, 0x00, 0x00, 0xa8, 0x14, 0x00, 0x00, 0xac, 0x13, 0x00, 0x00,
  0x90, 0x11, 0x00, 0x00, 0x9c, 0x0f, 0x00, 0x00, 0x40, 0x0e, 0x00, 0x00,
  0x0c, 0x0d, 0x00, 0x00, 0x48, 0x0c, 0x00, 0x00, 0xac, 0x0b, 0x00, 0x00,
  0x50, 0x0a, 0x00, 0x00, 0x1c, 0x09, 0x00, 0x00, 0x00, 0x07, 0x00, 0x00,
  0x0c, 0x05, 0x00, 0x00, 0x20, 0x04, 0x00, 0x00, 0x34, 0x03, 0x00, 0x00,
  0x58, 0x02, 0x00, 0x00, 0x6c, 0x01, 0x00, 0x00, 0x80, 0x00, 0x00, 0x00,
  0x04, 0x00, 0x00, 0x00, 0xc2, 0xea, 0xff, 0xff, 0x00, 0x00, 0x00, 0x01,
  0x18, 0x00, 0x00, 0x00, 0x20, 0x00, 0x00, 0x00, 0x3c, 0x00, 0x00, 0x00,
  0x13, 0x00, 0x00, 0x00, 0x00, 0x00, 0x00, 0x09, 0x50, 0x00, 0x00, 0x00,
  0x02, 0x00, 0x00, 0x00, 0xff, 0xff, 0xff, 0xff, 0x09, 0x00, 0x00, 0x00,
  0xac, 0xea, 0xff, 0xff, 0x08, 0x00, 0x00, 0x00, 0x10, 0x00, 0x00, 0x00,
  0x01, 0x00, 0x00, 0x00, 0xcc, 0xff, 0xff, 0xff, 0xff, 0xff, 0xff, 0xff,
  0x01, 0x00, 0x00, 0x00, 0xed, 0x2e, 0x27, 0x3d, 0x1b, 0x00, 0x00, 0x00,
  0x53, 0x74, 0x61, 0x74, 0x65, 0x66, 0x75, 0x6c, 0x50, 0x61, 0x72, 0x74,
  0x69, 0x74, 0x69, 0x6f, 0x6e, 0x65, 0x64, 0x43, 0x61, 0x6c, 0x6c, 0x5f,
  0x31, 0x3a, 0x30, 0x00, 0x02, 0x00, 0x00, 0x00, 0x01, 0x00, 0x00, 0x00,
  0x09, 0x00, 0x00, 0x00, 0x3a, 0xeb, 0xff, 0xff, 0x00, 0x00, 0x00, 0x01,
  0x18, 0x00, 0x00, 0x00, 0x20, 0x00, 0x00, 0x00, 0x40, 0x00, 0x00, 0x00,
  0x12, 0x00, 0x00, 0x00, 0x00, 0x00, 0x00, 0x09, 0xc0, 0x00, 0x00, 0x00,
  0x02, 0x00, 0x00, 0x00, 0xff, 0xff, 0xff, 0xff, 0x20, 0x00, 0x00, 0x00,
  0x24, 0xeb, 0xff, 0xff, 0x08, 0x00, 0x00, 0x00, 0x14, 0x00, 0x00, 0x00,
  0x01, 0x00, 0x00, 0x00, 0x80, 0xff, 0xff, 0xff, 0xff, 0xff, 0xff, 0xff,
  0x00, 0x00, 0x00, 0x00, 0x01, 0x00, 0x00, 0x00, 0x13, 0xb8, 0x2c, 0x3d,
  0x85, 0x00, 0x00, 0x00, 0x61, 0x75, 0x74, 0x6f, 0x65, 0x6e, 0x63, 0x6f,
  0x64, 0x65, 0x72, 0x5f, 0x31, 0x2f, 0x64, 0x65, 0x63, 0x6f, 0x64, 0x65,
  0x72, 0x5f, 0x31, 0x2f, 0x64, 0x65, 0x63, 0x5f, 0x64, 0x65, 0x6e, 0x73,
  0x65, 0x5f, 0x31, 0x5f, 0x31, 0x2f, 0x4d, 0x61, 0x74, 0x4d, 0x75, 0x6c,
  0x3b, 0x61, 0x75, 0x74, 0x6f, 0x65, 0x6e, 0x63, 0x6f, 0x64, 0x65, 0x72,
  0x5f, 0x31, 0x2f, 0x64, 0x65, 0x63, 0x6f, 0x64, 0x65, 0x72, 0x5f, 0x31,
  0x2f, 0x64, 0x65, 0x63, 0x5f, 0x64, 0x65, 0x6e, 0x73, 0x65, 0x5f, 0x31,
  0x5f, 0x31, 0x2f, 0x52, 0x65, 0x6c, 0x75, 0x3b, 0x61, 0x75, 0x74, 0x6f,
  0x65, 0x6e, 0x63, 0x6f, 0x64, 0x65, 0x72, 0x5f, 0x31, 0x2f, 0x64, 0x65,
  0x63, 0x6f, 0x64, 0x65, 0x72, 0x5f, 0x31, 0x2f, 0x64, 0x65, 0x63, 0x5f,
  0x64, 0x65, 0x6e, 0x73, 0x65, 0x5f, 0x31, 0x5f, 0x31, 0x2f, 0x42, 0x69,
  0x61, 0x73, 0x41, 0x64, 0x64, 0x00, 0x00, 0x00, 0x02, 0x00, 0x00, 0x00,
  0x01, 0x00, 0x00, 0x00, 0x20, 0x00, 0x00, 0x00, 0x22, 0xec, 0xff, 0xff,
  0x00, 0x00, 0x00, 0x01, 0x18, 0x00, 0x00, 0x00, 0x20, 0x00, 0x00, 0x00,
  0x40, 0x00, 0x00, 0x00, 0x11, 0x00, 0x00, 0x00, 0x00, 0x00, 0x00, 0x09,
  0xc0, 0x00, 0x00, 0x00, 0x02, 0x00, 0x00, 0x00, 0xff, 0xff, 0xff, 0xff,
  0x10, 0x00, 0x00, 0x00, 0x0c, 0xec, 0xff, 0xff, 0x08, 0x00, 0x00, 0x00,
  0x14, 0x00, 0x00, 0x00, 0x01, 0x00, 0x00, 0x00, 0x80, 0xff, 0xff, 0xff,
  0xff, 0xff, 0xff, 0xff, 0x00, 0x00, 0x00, 0x00, 0x01, 0x00, 0x00, 0x00,
  0x22, 0xd0, 0x79, 0x3d, 0x85, 0x00, 0x00, 0x00, 0x61, 0x75, 0x74, 0x6f,
  0x65, 0x6e, 0x63, 0x6f, 0x64, 0x65, 0x72, 0x5f, 0x31, 0x2f, 0x64, 0x65,
  0x63, 0x6f, 0x64, 0x65, 0x72, 0x5f, 0x31, 0x2f, 0x64, 0x65, 0x63, 0x5f,
  0x64, 0x65, 0x6e, 0x73, 0x65, 0x5f, 0x30, 0x5f, 0x31, 0x2f, 0x4d, 0x61,
  0x74, 0x4d, 0x75, 0x6c, 0x3b, 0x61, 0x75, 0x74, 0x6f, 0x65, 0x6e, 0x63,
  0x6f, 0x64, 0x65, 0x72, 0x5f, 0x31, 0x2f, 0x64, 0x65, 0x63, 0x6f, 0x64,
  0x65, 0x72, 0x5f, 0x31, 0x2f, 0x64, 0x65, 0x63, 0x5f, 0x64, 0x65, 0x6e,
  0x73, 0x65, 0x5f, 0x30, 0x5f, 0x31, 0x2f, 0x52, 0x65, 0x6c, 0x75, 0x3b,
  0x61, 0x75, 0x74, 0x6f, 0x65, 0x6e, 0x63, 0x6f, 0x64, 0x65, 0x72, 0x5f,
  0x31, 0x2f, 0x64, 0x65, 0x63, 0x6f, 0x64, 0x65, 0x72, 0x5f, 0x31, 0x2f,
  0x64, 0x65, 0x63, 0x5f, 0x64, 0x65, 0x6e, 0x73, 0x65, 0x5f, 0x30, 0x5f,
  0x31, 0x2f, 0x42, 0x69, 0x61, 0x73, 0x41, 0x64, 0x64, 0x00, 0x00, 0x00,
  0x02, 0x00, 0x00, 0x00, 0x01, 0x00, 0x00, 0x00, 0x10, 0x00, 0x00, 0x00,
  0x0a, 0xed, 0xff, 0xff, 0x00, 0x00, 0x00, 0x01, 0x18, 0x00, 0x00, 0x00,
  0x20, 0x00, 0x00, 0x00, 0x40, 0x00, 0x00, 0x00, 0x10, 0x00, 0x00, 0x00,
  0x00, 0x00, 0x00, 0x09, 0xb0, 0x00, 0x00, 0x00, 0x02, 0x00, 0x00, 0x00,
  0xff, 0xff, 0xff, 0xff, 0x04, 0x00, 0x00, 0x00, 0xf4, 0xec, 0xff, 0xff,
  0x08, 0x00, 0x00, 0x00, 0x14, 0x00, 0x00, 0x00, 0x01, 0x00, 0x00, 0x00,
  0x80, 0xff, 0xff, 0xff, 0xff, 0xff, 0xff, 0xff, 0x00, 0x00, 0x00, 0x00,
  0x01, 0x00, 0x00, 0x00, 0x09, 0xec, 0x82, 0x3d, 0x76, 0x00, 0x00, 0x00,
  0x61, 0x75, 0x74, 0x6f, 0x65, 0x6e, 0x63, 0x6f, 0x64, 0x65, 0x72, 0x5f,
  0x31, 0x2f, 0x65, 0x6e, 0x63, 0x6f, 0x64, 0x65, 0x72, 0x5f, 0x31, 0x2f,
  0x6c, 0x61, 0x74, 0x65, 0x6e, 0x74, 0x5f, 0x31, 0x2f, 0x4d, 0x61, 0x74,
  0x4d, 0x75, 0x6c, 0x3b, 0x61, 0x75, 0x74, 0x6f, 0x65, 0x6e, 0x63, 0x6f,
  0x64, 0x65, 0x72, 0x5f, 0x31, 0x2f, 0x65, 0x6e, 0x63, 0x6f, 0x64, 0x65,
  0x72, 0x5f, 0x31, 0x2f, 0x6c, 0x61, 0x74, 0x65, 0x6e, 0x74, 0x5f, 0x31,
  0x2f, 0x52, 0x65, 0x6c, 0x75, 0x3b, 0x61, 0x75, 0x74, 0x6f, 0x65, 0x6e,
  0x63, 0x6f, 0x64, 0x65, 0x72, 0x5f, 0x31, 0x2f, 0x65, 0x6e, 0x63, 0x6f,
  0x64, 0x65, 0x72, 0x5f, 0x31, 0x2f, 0x6c, 0x61, 0x74, 0x65, 0x6e, 0x74,
  0x5f, 0x31, 0x2f, 0x42, 0x69, 0x61, 0x73, 0x41, 0x64, 0x64, 0x00, 0x00,
  0x02, 0x00, 0x00, 0x00, 0x01, 0x00, 0x00, 0x00, 0x04, 0x00, 0x00, 0x00,
  0xe2, 0xed, 0xff, 0xff, 0x00, 0x00, 0x00, 0x01, 0x18, 0x00, 0x00, 0x00,
  0x20, 0x00, 0x00, 0x00, 0x40, 0x00, 0x00, 0x00, 0x0f, 0x00, 0x00, 0x00,
  0x00, 0x00, 0x00, 0x09, 0xc0, 0x00, 0x00, 0x00, 0x02, 0x00, 0x00, 0x00,
  0xff, 0xff, 0xff, 0xff, 0x10, 0x00, 0x00, 0x00, 0xcc, 0xed, 0xff, 0xff,
  0x08, 0x00, 0x00, 0x00, 0x14, 0x00, 0x00, 0x00, 0x01, 0x00, 0x00, 0x00,
  0x80, 0xff, 0xff, 0xff, 0xff, 0xff, 0xff, 0xff, 0x00, 0x00, 0x00, 0x00,
  0x01, 0x00, 0x00, 0x00, 0x7f, 0x0a, 0x4a, 0x3d, 0x85, 0x00, 0x00, 0x00,
  0x61, 0x75, 0x74, 0x6f, 0x65, 0x6e, 0x63, 0x6f, 0x64, 0x65, 0x72, 0x5f,
  0x31, 0x2f, 0x65, 0x6e, 0x63, 0x6f, 0x64, 0x65, 0x72, 0x5f, 0x31, 0x2f,
  0x65, 0x6e, 0x63, 0x5f, 0x64, 0x65, 0x6e, 0x73, 0x65, 0x5f, 0x31, 0x5f,
  0x31, 0x2f, 0x4d, 0x61, 0x74, 0x4d, 0x75, 0x6c, 0x3b, 0x61, 0x75, 0x74,
  0x6f, 0x65, 0x6e, 0x63, 0x6f, 0x64, 0x65, 0x72, 0x5f, 0x31, 0x2f, 0x65,
  0x6e, 0x63, 0x6f, 0x64, 0x65, 0x72, 0x5f, 0x31, 0x2f, 0x65, 0x6e, 0x63,
  0x5f, 0x64, 0x65, 0x6e, 0x73, 0x65, 0x5f, 0x31, 0x5f, 0x31, 0x2f, 0x52,
  0x65, 0x6c, 0x75, 0x3b, 0x61, 0x75, 0x74, 0x6f, 0x65, 0x6e, 0x63, 0x6f,
  0x64, 0x65, 0x72, 0x5f, 0x31, 0x2f, 0x65, 0x6e, 0x63, 0x6f, 0x64, 0x65,
  0x72, 0x5f, 0x31, 0x2f, 0x65, 0x6e, 0x63, 0x5f, 0x64, 0x65, 0x6e, 0x73,
  0x65, 0x5f, 0x31, 0x5f, 0x31, 0x2f, 0x42, 0x69, 0x61, 0x73, 0x41, 0x64,
  0x64, 0x00, 0x00, 0x00, 0x02, 0x00, 0x00, 0x00, 0x01, 0x00, 0x00, 0x00,
  0x10, 0x00, 0x00, 0x00, 0xca, 0xee, 0xff, 0xff, 0x00, 0x00, 0x00, 0x01,
  0x18, 0x00, 0x00, 0x00, 0x20, 0x00, 0x00, 0x00, 0x40, 0x00, 0x00, 0x00,
  0x0e, 0x00, 0x00, 0x00, 0x00, 0x00, 0x00, 0x09, 0xc0, 0x00, 0x00, 0x00,
  0x02, 0x00, 0x00, 0x00, 0xff, 0xff, 0xff, 0xff, 0x20, 0x00, 0x00, 0x00,
  0xb4, 0xee, 0xff, 0xff, 0x08, 0x00, 0x00, 0x00, 0x14, 0x00, 0x00, 0x00,
  0x01, 0x00, 0x00, 0x00, 0x80, 0xff, 0xff, 0xff, 0xff, 0xff, 0xff, 0xff,
  0x00, 0x00, 0x00, 0x00, 0x01, 0x00, 0x00, 0x00, 0x52, 0x5b, 0x05, 0x3d,
  0x85, 0x00, 0x00, 0x00, 0x61, 0x75, 0x74, 0x6f, 0x65, 0x6e, 0x63, 0x6f,
  0x64, 0x65, 0x72, 0x5f, 0x31, 0x2f, 0x65, 0x6e, 0x63, 0x6f, 0x64, 0x65,
  0x72, 0x5f, 0x31, 0x2f, 0x65, 0x6e, 0x63, 0x5f, 0x64, 0x65, 0x6e, 0x73,
  0x65, 0x5f, 0x30, 0x5f, 0x31, 0x2f, 0x4d, 0x61, 0x74, 0x4d, 0x75, 0x6c,
  0x3b, 0x61, 0x75, 0x74, 0x6f, 0x65, 0x6e, 0x63, 0x6f, 0x64, 0x65, 0x72,
  0x5f, 0x31, 0x2f, 0x65, 0x6e, 0x63, 0x6f, 0x64, 0x65, 0x72, 0x5f, 0x31,
  0x2f, 0x65, 0x6e, 0x63, 0x5f, 0x64, 0x65, 0x6e, 0x73, 0x65, 0x5f, 0x30,
  0x5f, 0x31, 0x2f, 0x52, 0x65, 0x6c, 0x75, 0x3b, 0x61, 0x75, 0x74, 0x6f,
  0x65, 0x6e, 0x63, 0x6f, 0x64, 0x65, 0x72, 0x5f, 0x31, 0x2f, 0x65, 0x6e,
  0x63, 0x6f, 0x64, 0x65, 0x72, 0x5f, 0x31, 0x2f, 0x65, 0x6e, 0x63, 0x5f,
  0x64, 0x65, 0x6e, 0x73, 0x65, 0x5f, 0x30, 0x5f, 0x31, 0x2f, 0x42, 0x69,
  0x61, 0x73, 0x41, 0x64, 0x64, 0x00, 0x00, 0x00, 0x02, 0x00, 0x00, 0x00,
  0x01, 0x00, 0x00, 0x00, 0x20, 0x00, 0x00, 0x00, 0xa6, 0xf0, 0xff, 0xff,
  0x00, 0x00, 0x00, 0x01, 0x14, 0x00, 0x00, 0x00, 0xa4, 0x01, 0x00, 0x00,
  0x0d, 0x00, 0x00, 0x00, 0x00, 0x00, 0x00, 0x09, 0xcc, 0x01, 0x00, 0x00,
  0x8c, 0xef, 0xff, 0xff, 0x08, 0x00, 0x00, 0x00, 0x08, 0x01, 0x00, 0x00,
  0x20, 0x00, 0x00, 0x00, 0x00, 0x00, 0x00, 0x00, 0x00, 0x00, 0x00, 0x00,
  0x00, 0x00, 0x00, 0x00, 0x00, 0x00, 0x00, 0x00, 0x00, 0x00, 0x00, 0x00,
  0x00, 0x00, 0x00, 0x00, 0x00, 0x00, 0x00, 0x00, 0x00, 0x00, 0x00, 0x00,
  0x00, 0x00, 0x00, 0x00, 0x00, 0x00, 0x00, 0x00, 0x00, 0x00, 0x00, 0x00,
  0x00, 0x00, 0x00, 0x00, 0x00, 0x00, 0x00, 0x00, 0x00, 0x00, 0x00, 0x00,
  0x00, 0x00, 0x00, 0x00, 0x00, 0x00, 0x00, 0x00, 0x00, 0x00, 0x00, 0x00,
  0x00, 0x00, 0x00, 0x00, 0x00, 0x00, 0x00, 0x00, 0x00, 0x00, 0x00, 0x00,
  0x00, 0x00, 0x00, 0x00, 0x00, 0x00, 0x00, 0x00, 0x00, 0x00, 0x00, 0x00,
  0x00, 0x00, 0x00, 0x00, 0x00, 0x00, 0x00, 0x00, 0x00, 0x00, 0x00, 0x00,
  0x00, 0x00, 0x00, 0x00, 0x00, 0x00, 0x00, 0x00, 0x00, 0x00, 0x00, 0x00,
  0x00, 0x00, 0x00, 0x00, 0x00, 0x00, 0x00, 0x00, 0x00, 0x00, 0x00, 0x00,
  0x00, 0x00, 0x00, 0x00, 0x00, 0x00, 0x00, 0x00, 0x00, 0x00, 0x00, 0x00,
  0x00, 0x00, 0x00, 0x00, 0x00, 0x00, 0x00, 0x00, 0x00, 0x00, 0x00, 0x00,
  0x00, 0x00, 0x00, 0x00, 0x00, 0x00, 0x00, 0x00, 0x00, 0x00, 0x00, 0x00,
  0x00, 0x00, 0x00, 0x00, 0x00, 0x00, 0x00, 0x00, 0x00, 0x00, 0x00, 0x00,
  0x00, 0x00, 0x00, 0x00, 0x00, 0x00, 0x00, 0x00, 0x00, 0x00, 0x00, 0x00,
  0x00, 0x00, 0x00, 0x00, 0x00, 0x00, 0x00, 0x00, 0x00, 0x00, 0x00, 0x00,
  0x00, 0x00, 0x00, 0x00, 0x00, 0x00, 0x00, 0x00, 0x00, 0x00, 0x00, 0x00,
  0x00, 0x00, 0x00, 0x00, 0x00, 0x00, 0x00, 0x00, 0x00, 0x00, 0x00, 0x00,
  0x00, 0x00, 0x00, 0x00, 0x00, 0x00, 0x00, 0x00, 0x00, 0x00, 0x00, 0x00,
  0x00, 0x00, 0x00, 0x00, 0x00, 0x00, 0x00, 0x00, 0x00, 0x00, 0x00, 0x00,
  0x00, 0x00, 0x00, 0x00, 0x00, 0x00, 0x00, 0x00, 0x20, 0x00, 0x00, 0x00,
  0x11, 0x09, 0x55, 0x3b, 0xdd, 0x59, 0x19, 0x3b, 0x4b, 0xc7, 0x1c, 0x3b,
  0xa3, 0xee, 0x50, 0x3b, 0xe3, 0x38, 0x72, 0x3b, 0xfb, 0xa9, 0x75, 0x3b,
  0xd1, 0x10, 0x57, 0x3b, 0x00, 0x9c, 0x25, 0x3b, 0xd2, 0x23, 0x65, 0x3b,
  0x1e, 0x84, 0x75, 0x3b, 0x94, 0x17, 0x1e, 0x3b, 0x91, 0x3f, 0x17, 0x3b,
  0x8e, 0x30, 0x2f, 0x3b, 0xf5, 0x6e, 0x3c, 0x3b, 0xf8, 0xf4, 0x3e, 0x3b,
  0xed, 0xe3, 0x2c, 0x3b, 0x4d, 0x29, 0x46, 0x3b, 0x2f, 0x2b, 0x45, 0x3b,
  0xfb, 0x4e, 0x84, 0x3b, 0x8a, 0x0c, 0x0e, 0x3b, 0xe3, 0xe7, 0x51, 0x3b,
  0xe0, 0x82, 0x7b, 0x3b, 0x8b, 0x83, 0x39, 0x3b, 0x50, 0x9e, 0x1a, 0x3b,
  0x42, 0xf9, 0x24, 0x3b, 0xc2, 0xa2, 0x3b, 0x3b, 0x2f, 0x7b, 0x1d, 0x3b,
  0xc6, 0xda, 0x10, 0x3b, 0x99, 0xe5, 0x1b, 0x3b, 0x15, 0x80, 0x2e, 0x3b,
  0x38, 0xa4, 0x7e, 0x3b, 0xda, 0x2a, 0x2e, 0x3b, 0x2c, 0x00, 0x00, 0x00,
  0x61, 0x75, 0x74, 0x6f, 0x65, 0x6e, 0x63, 0x6f, 0x64, 0x65, 0x72, 0x5f,
  0x31, 0x2f, 0x65, 0x6e, 0x63, 0x6f, 0x64, 0x65, 0x72, 0x5f, 0x31, 0x2f,
  0x65, 0x6e, 0x63, 0x5f, 0x64, 0x65, 0x6e, 0x73, 0x65, 0x5f, 0x30, 0x5f,
  0x31, 0x2f, 0x4d, 0x61, 0x74, 0x4d, 0x75, 0x6c, 0x00, 0x00, 0x00, 0x00,
  0x02, 0x00, 0x00, 0x00, 0x20, 0x00, 0x00, 0x00, 0x09, 0x00, 0x00, 0x00,
  0x96, 0xf2, 0xff, 0xff, 0x00, 0x00, 0x00, 0x01, 0x14, 0x00, 0x00, 0x00,
  0xa4, 0x01, 0x00, 0x00, 0x0c, 0x00, 0x00, 0x00, 0x00, 0x00, 0x00, 0x02,
  0xf8, 0x01, 0x00, 0x00, 0x7c, 0xf1, 0xff, 0xff, 0x08, 0x00, 0x00, 0x00,
  0x08, 0x01, 0x00, 0x00, 0x20, 0x00, 0x00, 0x00, 0x00, 0x00, 0x00, 0x00,
  0x00, 0x00, 0x00, 0x00, 0x00, 0x00, 0x00, 0x00, 0x00, 0x00, 0x00, 0x00,
  0x00, 0x00, 0x00, 0x00, 0x00, 0x00, 0x00, 0x00, 0x00, 0x00, 0x00, 0x00,
  0x00, 0x00, 0x00, 0x00, 0x00, 0x00, 0x00, 0x00, 0x00, 0x00, 0x00, 0x00,
  0x00, 0x00, 0x00, 0x00, 0x00, 0x00, 0x00, 0x00, 0x00, 0x00, 0x00, 0x00,
  0x00, 0x00, 0x00, 0x00, 0x00, 0x00, 0x00, 0x00, 0x00, 0x00, 0x00, 0x00,
  0x00, 0x00, 0x00, 0x00, 0x00, 0x00, 0x00, 0x00, 0x00, 0x00, 0x00, 0x00,
  0x00, 0x00, 0x00, 0x00, 0x00, 0x00, 0x00, 0x00, 0x00, 0x00, 0x00, 0x00,
  0x00, 0x00, 0x00, 0x00, 0x00, 0x00, 0x00, 0x00, 0x00, 0x00, 0x00, 0x00,
  0x00, 0x00, 0x00, 0x00, 0x00, 0x00, 0x00, 0x00, 0x00, 0x00, 0x00, 0x00,
  0x00, 0x00, 0x00, 0x00, 0x00, 0x00, 0x00, 0x00, 0x00, 0x00, 0x00, 0x00,
  0x00, 0x00, 0x00, 0x00, 0x00, 0x00, 0x00, 0x00, 0x00, 0x00, 0x00, 0x00,
  0x00, 0x00, 0x00, 0x00, 0x00, 0x00, 0x00, 0x00, 0x00, 0x00, 0x00, 0x00,
  0x00, 0x00, 0x00, 0x00, 0x00, 0x00, 0x00, 0x00, 0x00, 0x00, 0x00, 0x00,
  0x00, 0x00, 0x00, 0x00, 0x00, 0x00, 0x00, 0x00, 0x00, 0x00, 0x00, 0x00,
  0x00, 0x00, 0x00, 0x00, 0x00, 0x00, 0x00, 0x00, 0x00, 0x00, 0x00, 0x00,
  0x00, 0x00, 0x00, 0x00, 0x00, 0x00, 0x00, 0x00, 0x00, 0x00, 0x00, 0x00,
  0x00, 0x00, 0x00, 0x00, 0x00, 0x00, 0x00, 0x00, 0x00, 0x00, 0x00, 0x00,
  0x00, 0x00, 0x00, 0x00, 0x00, 0x00, 0x00, 0x00, 0x00, 0x00, 0x00, 0x00,
  0x00, 0x00, 0x00, 0x00, 0x00, 0x00, 0x00, 0x00, 0x00, 0x00, 0x00, 0x00,
  0x00, 0x00, 0x00, 0x00, 0x00, 0x00, 0x00, 0x00, 0x00, 0x00, 0x00, 0x00,
  0x00, 0x00, 0x00, 0x00, 0x00, 0x00, 0x00, 0x00, 0x00, 0x00, 0x00, 0x00,
  0x20, 0x00, 0x00, 0x00, 0x66, 0xda, 0x12, 0x39, 0xc5, 0x6b, 0xd3, 0x38,
  0x75, 0x25, 0xd8, 0x38, 0x4d, 0x06, 0x10, 0x39, 0x00, 0xf9, 0x26, 0x39,
  0x5e, 0x58, 0x29, 0x39, 0xaf, 0x40, 0x14, 0x39, 0x3c, 0x52, 0xe4, 0x38,
  0x5d, 0xf4, 0x1d, 0x39, 0x45, 0x3e, 0x29, 0x39, 0x16, 0xf5, 0xd9, 0x38,
  0xa2, 0x85, 0xd0, 0x38, 0x81, 0x87, 0xf1, 0x38, 0xe2, 0xe4, 0x01, 0x39,
  0x33, 0xa2, 0x03, 0x39, 0xfb, 0x5b, 0xee, 0x38, 0x91, 0x99, 0x08, 0x39,
  0x65, 0xea, 0x07, 0x39, 0x04, 0x69, 0x36, 0x39, 0xd2, 0xd6, 0xc3, 0x38,
  0x1e, 0xb2, 0x10, 0x39, 0x3c, 0x60, 0x2d, 0x39, 0x53, 0xc3, 0xff, 0x38,
  0x14, 0x2b, 0xd5, 0x38, 0xde, 0x71, 0xe3, 0x38, 0x1f, 0x58, 0x01, 0x39,
  0x78, 0x1d, 0xd9, 0x38, 0x08, 0xb5, 0xc7, 0x38, 0x4c, 0xee, 0xd6, 0x38,
  0x35, 0x94, 0xf0, 0x38, 0xa1, 0x88, 0x2f, 0x39, 0xb4, 0x1e, 0xf0, 0x38,
  0x58, 0x00, 0x00, 0x00, 0x61, 0x75, 0x74, 0x6f, 0x65, 0x6e, 0x63, 0x6f,
  0x64, 0x65, 0x72, 0x5f, 0x31, 0x2f, 0x65, 0x6e, 0x63, 0x6f, 0x64, 0x65,
  0x72, 0x5f, 0x31, 0x2f, 0x65, 0x6e, 0x63, 0x5f, 0x64, 0x65, 0x6e, 0x73,
  0x65, 0x5f, 0x30, 0x5f, 0x31, 0x2f, 0x52, 0x65, 0x6c, 0x75, 0x3b, 0x61,
  0x75, 0x74, 0x6f, 0x65, 0x6e, 0x63, 0x6f, 0x64, 0x65, 0x72, 0x5f, 0x31,
  0x2f, 0x65, 0x6e, 0x63, 0x6f, 0x64, 0x65, 0x72, 0x5f, 0x31, 0x2f, 0x65,
  0x6e, 0x63, 0x5f, 0x64, 0x65, 0x6e, 0x73, 0x65, 0x5f, 0x30, 0x5f, 0x31,
  0x2f, 0x42, 0x69, 0x61, 0x73, 0x41, 0x64, 0x64, 0x00, 0x00, 0x00, 0x00,
  0x01, 0x00, 0x00, 0x00, 0x20, 0x00, 0x00, 0x00, 0xae, 0xf4, 0xff, 0xff,
  0x00, 0x00, 0x00, 0x01, 0x14, 0x00, 0x00, 0x00, 0xe4, 0x00, 0x00, 0x00,
  0x0b, 0x00, 0x00, 0x00, 0x00, 0x00, 0x00, 0x09, 0x0c, 0x01, 0x00, 0x00,
  0x94, 0xf3, 0xff, 0xff, 0x08, 0x00, 0x00, 0x00, 0x88, 0x00, 0x00, 0x00,
  0x10, 0x00, 0x00, 0x00, 0x00, 0x00, 0x00, 0x00, 0x00, 0x00, 0x00, 0x00,
  0x00, 0x00, 0x00, 0x00, 0x00, 0x00, 0x00, 0x00, 0x00, 0x00, 0x00, 0x00,
  0x00, 0x00, 0x00, 0x00, 0x00, 0x00, 0x00, 0x00, 0x00, 0x00, 0x00, 0x00,
  0x00, 0x00, 0x00, 0x00, 0x00, 0x00, 0x00, 0x00, 0x00, 0x00, 0x00, 0x00,
  0x00, 0x00, 0x00, 0x00, 0x00, 0x00, 0x00, 0x00, 0x00, 0x00, 0x00, 0x00,
  0x00, 0x00, 0x00, 0x00, 0x00, 0x00, 0x00, 0x00, 0x00, 0x00, 0x00, 0x00,
  0x00, 0x00, 0x00, 0x00, 0x00, 0x00, 0x00, 0x00, 0x00, 0x00, 0x00, 0x00,
  0x00, 0x00, 0x00, 0x00, 0x00, 0x00, 0x00, 0x00, 0x00, 0x00, 0x00, 0x00,
  0x00, 0x00, 0x00, 0x00, 0x00, 0x00, 0x00, 0x00, 0x00, 0x00, 0x00, 0x00,
  0x00, 0x00, 0x00, 0x00, 0x00, 0x00, 0x00, 0x00, 0x00, 0x00, 0x00, 0x00,
  0x00, 0x00, 0x00, 0x00, 0x00, 0x00, 0x00, 0x00, 0x00, 0x00, 0x00, 0x00,
  0x10, 0x00, 0x00, 0x00, 0x7f, 0xf5, 0x68, 0x3b, 0xf5, 0xf9, 0x84, 0x3b,
  0x62, 0xca, 0x49, 0x3b, 0x66, 0x38, 0x32, 0x3b, 0xc7, 0xec, 0x2f, 0x3b,
  0xf8, 0xe3, 0x30, 0x3b, 0xc1, 0xa5, 0x36, 0x3b, 0xc9, 0x6a, 0x5c, 0x3b,
  0xec, 0x3f, 0x81, 0x3b, 0x9a, 0x49, 0x80, 0x3b, 0x05, 0xf3, 0x3f, 0x3b,
  0x26, 0xa5, 0x42, 0x3b, 0x12, 0xec, 0x4b, 0x3b, 0x7e, 0x9e, 0x60, 0x3b,
  0x7f, 0xbd, 0xaa, 0x3b, 0x47, 0x80, 0x82, 0x3b, 0x2c, 0x00, 0x00, 0x00,
  0x61, 0x75, 0x74, 0x6f, 0x65, 0x6e, 0x63, 0x6f, 0x64, 0x65, 0x72, 0x5f,
  0x31, 0x2f, 0x65, 0x6e, 0x63, 0x6f, 0x64, 0x65, 0x72, 0x5f, 0x31, 0x2f,
  0x65, 0x6e, 0x63, 0x5f, 0x64, 0x65, 0x6e, 0x73, 0x65, 0x5f, 0x31, 0x5f,
  0x31, 0x2f, 0x4d, 0x61, 0x74, 0x4d, 0x75, 0x6c, 0x00, 0x00, 0x00, 0x00,
  0x02, 0x00, 0x00, 0x00, 0x10, 0x00, 0x00, 0x00, 0x20, 0x00, 0x00, 0x00,
  0xde, 0xf5, 0xff, 0xff, 0x00, 0x00, 0x00, 0x01, 0x14, 0x00, 0x00, 0x00,
  0xe4, 0x00, 0x00, 0x00, 0x0a, 0x00, 0x00, 0x00, 0x00, 0x00, 0x00, 0x02,
  0x38, 0x01, 0x00, 0x00, 0xc4, 0xf4, 0xff, 0xff, 0x08, 0x00, 0x00, 0x00,
  0x88, 0x00, 0x00, 0x00, 0x10, 0x00, 0x00, 0x00, 0x00, 0x00, 0x00, 0x00,
  0x00, 0x00, 0x00, 0x00, 0x00, 0x00, 0x00, 0x00, 0x00, 0x00, 0x00, 0x00,
  0x00, 0x00, 0x00, 0x00, 0x00, 0x00, 0x00, 0x00, 0x00, 0x00, 0x00, 0x00,
  0x00, 0x00, 0x00, 0x00, 0x00, 0x00, 0x00, 0x00, 0x00, 0x00, 0x00, 0x00,
  0x00, 0x00, 0x00, 0x00, 0x00, 0x00, 0x00, 0x00, 0x00, 0x00, 0x00, 0x00,
  0x00, 0x00, 0x00, 0x00, 0x00, 0x00, 0x00, 0x00, 0x00, 0x00, 0x00, 0x00,
  0x00, 0x00, 0x00, 0x00, 0x00, 0x00, 0x00, 0x00, 0x00, 0x00, 0x00, 0x00,
  0x00, 0x00, 0x00, 0x00, 0x00, 0x00, 0x00, 0x00, 0x00, 0x00, 0x00, 0x00,
  0x00, 0x00, 0x00, 0x00, 0x00, 0x00, 0x00, 0x00, 0x00, 0x00, 0x00, 0x00,
  0x00, 0x00, 0x00, 0x00, 0x00, 0x00, 0x00, 0x00, 0x00, 0x00, 0x00, 0x00,
  0x00, 0x00, 0x00, 0x00, 0x00, 0x00, 0x00, 0x00, 0x00, 0x00, 0x00, 0x00,
  0x00, 0x00, 0x00, 0x00, 0x10, 0x00, 0x00, 0x00, 0x4a, 0xb5, 0xf2, 0x38,
  0x97, 0x8a, 0x0a, 0x39, 0x41, 0x3c, 0xd2, 0x38, 0xc0, 0xad, 0xb9, 0x38,
  0x8a, 0x49, 0xb7, 0x38, 0x13, 0x4b, 0xb8, 0x38, 0x89, 0x4a, 0xbe, 0x38,
  0x36, 0xa4, 0xe5, 0x38, 0xa1, 0xa8, 0x06, 0x39, 0x01, 0xa8, 0x05, 0x39,
  0x75, 0xfb, 0xc7, 0x38, 0x78, 0xca, 0xca, 0x38, 0xc7, 0x74, 0xd4, 0x38,
  0xef, 0x04, 0xea, 0x38, 0xb6, 0xe2, 0x31, 0x39, 0x65, 0xf6, 0x07, 0x39,
  0x58, 0x00, 0x00, 0x00, 0x61, 0x75, 0x74, 0x6f, 0x65, 0x6e, 0x63, 0x6f,
  0x64, 0x65, 0x72, 0x5f, 0x31, 0x2f, 0x65, 0x6e, 0x63, 0x6f, 0x64, 0x65,
  0x72, 0x5f, 0x31, 0x2f, 0x65, 0x6e, 0x63, 0x5f, 0x64, 0x65, 0x6e, 0x73,
  0x65, 0x5f, 0x31, 0x5f, 0x31, 0x2f, 0x52, 0x65, 0x6c, 0x75, 0x3b, 0x61,
  0x75, 0x74, 0x6f, 0x65, 0x6e, 0x63, 0x6f, 0x64, 0x65, 0x72, 0x5f, 0x31,
  0x2f, 0x65, 0x6e, 0x63, 0x6f, 0x64, 0x65, 0x72, 0x5f, 0x31, 0x2f, 0x65,
  0x6e, 0x63, 0x5f, 0x64, 0x65, 0x6e, 0x73, 0x65, 0x5f, 0x31, 0x5f, 0x31,
  0x2f, 0x42, 0x69, 0x61, 0x73, 0x41, 0x64, 0x64, 0x00, 0x00, 0x00, 0x00,
  0x01, 0x00, 0x00, 0x00, 0x10, 0x00, 0x00, 0x00, 0x36, 0xf7, 0xff, 0xff,
  0x00, 0x00, 0x00, 0x01, 0x14, 0x00, 0x00, 0x00, 0x54, 0x00, 0x00, 0x00,
  0x09, 0x00, 0x00, 0x00, 0x00, 0x00, 0x00, 0x09, 0x74, 0x00, 0x00, 0x00,
  0x1c, 0xf6, 0xff, 0xff, 0x08, 0x00, 0x00, 0x00, 0x28, 0x00, 0x00, 0x00,
  0x04, 0x00, 0x00, 0x00, 0x00, 0x00, 0x00, 0x00, 0x00, 0x00, 0x00, 0x00,
  0x00, 0x00, 0x00, 0x00, 0x00, 0x00, 0x00, 0x00, 0x00, 0x00, 0x00, 0x00,
  0x00, 0x00, 0x00, 0x00, 0x00, 0x00, 0x00, 0x00, 0x00, 0x00, 0x00, 0x00,
  0x04, 0x00, 0x00, 0x00, 0x24, 0x33, 0x9e, 0x3b, 0xf8, 0x2d, 0xab, 0x3b,
  0xcf, 0x5c, 0x9c, 0x3b, 0x25, 0xaa, 0xac, 0x3b, 0x27, 0x00, 0x00, 0x00,
  0x61, 0x75, 0x74, 0x6f, 0x65, 0x6e, 0x63, 0x6f, 0x64, 0x65, 0x72, 0x5f,
  0x31, 0x2f, 0x65, 0x6e, 0x63, 0x6f, 0x64, 0x65, 0x72, 0x5f, 0x31, 0x2f,
  0x6c, 0x61, 0x74, 0x65, 0x6e, 0x74, 0x5f, 0x31, 0x2f, 0x4d, 0x61, 0x74,
  0x4d, 0x75, 0x6c, 0x00, 0x02, 0x00, 0x00, 0x00, 0x04, 0x00, 0x00, 0x00,
  0x10, 0x00, 0x00, 0x00, 0xce, 0xf7, 0xff, 0xff, 0x00, 0x00, 0x00, 0x01,
  0x14, 0x00, 0x00, 0x00, 0x58, 0x00, 0x00, 0x00, 0x08, 0x00, 0x00, 0x00,
  0x00, 0x00, 0x00, 0x02, 0xa0, 0x00, 0x00, 0x00, 0xb4, 0xf6, 0xff, 0xff,
  0x08, 0x00, 0x00, 0x00, 0x2c, 0x00, 0x00, 0x00, 0x04, 0x00, 0x00, 0x00,
  0x00, 0x00, 0x00, 0x00, 0x00, 0x00, 0x00, 0x00, 0x00, 0x00, 0x00, 0x00,
  0x00, 0x00, 0x00, 0x00, 0x00, 0x00, 0x00, 0x00, 0x00, 0x00, 0x00, 0x00,
  0x00, 0x00, 0x00, 0x00, 0x00, 0x00, 0x00, 0x00, 0x00, 0x00, 0x00, 0x00,
  0x04, 0x00, 0x00, 0x00, 0xae, 0xb5, 0x79, 0x39, 0x4a, 0x19, 0x87, 0x39,
  0x49, 0xcf, 0x76, 0x39, 0x55, 0x45, 0x88, 0x39, 0x4e, 0x00, 0x00, 0x00,
  0x61, 0x75, 0x74, 0x6f, 0x65, 0x6e, 0x63, 0x6f, 0x64, 0x65, 0x72, 0x5f,
  0x31, 0x2f, 0x65, 0x6e, 0x63, 0x6f, 0x64, 0x65, 0x72, 0x5f, 0x31, 0x2f,
  0x6c, 0x61, 0x74, 0x65, 0x6e, 0x74, 0x5f, 0x31, 0x2f, 0x52, 0x65, 0x6c,
  0x75, 0x3b, 0x61, 0x75, 0x74, 0x6f, 0x65, 0x6e, 0x63, 0x6f, 0x64, 0x65,
  0x72, 0x5f, 0x31, 0x2f, 0x65, 0x6e, 0x63, 0x6f, 0x64, 0x65, 0x72, 0x5f,
  0x31, 0x2f, 0x6c, 0x61, 0x74, 0x65, 0x6e, 0x74, 0x5f, 0x31, 0x2f, 0x42,
  0x69, 0x61, 0x73, 0x41, 0x64, 0x64, 0x00, 0x00, 0x01, 0x00, 0x00, 0x00,
  0x04, 0x00, 0x00, 0x00, 0x8e, 0xf8, 0xff, 0xff, 0x00, 0x00, 0x00, 0x01,
  0x14, 0x00, 0x00, 0x00, 0xe4, 0x00, 0x00, 0x00, 0x07, 0x00, 0x00, 0x00,
  0x00, 0x00, 0x00, 0x09, 0x0c, 0x01, 0x00, 0x00, 0x74, 0xf7, 0xff, 0xff,
  0x08, 0x00, 0x00, 0x00, 0x88, 0x00, 0x00, 0x00, 0x10, 0x00, 0x00, 0x00,
  0x00, 0x00, 0x00, 0x00, 0x00, 0x00, 0x00, 0x00, 0x00, 0x00, 0x00, 0x00,
  0x00, 0x00, 0x00, 0x00, 0x00, 0x00, 0x00, 0x00, 0x00, 0x00, 0x00, 0x00,
  0x00, 0x00, 0x00, 0x00, 0x00, 0x00, 0x00, 0x00, 0x00, 0x00, 0x00, 0x00,
  0x00, 0x00, 0x00, 0x00, 0x00, 0x00, 0x00, 0x00, 0x00, 0x00, 0x00, 0x00,
  0x00, 0x00, 0x00, 0x00, 0x00, 0x00, 0x00, 0x00, 0x00, 0x00, 0x00, 0x00,
  0x00, 0x00, 0x00, 0x00, 0x00, 0x00, 0x00, 0x00, 0x00, 0x00, 0x00, 0x00,
  0x00, 0x00, 0x00, 0x00, 0x00, 0x00, 0x00, 0x00, 0x00, 0x00, 0x00, 0x00,
  0x00, 0x00, 0x00, 0x00, 0x00, 0x00, 0x00, 0x00, 0x00, 0x00, 0x00, 0x00,
  0x00, 0x00, 0x00, 0x00, 0x00, 0x00, 0x00, 0x00, 0x00, 0x00, 0x00, 0x00,
  0x00, 0x00, 0x00, 0x00, 0x00, 0x00, 0x00, 0x00, 0x00, 0x00, 0x00, 0x00,
  0x00, 0x00, 0x00, 0x00, 0x00, 0x00, 0x00, 0x00, 0x10, 0x00, 0x00, 0x00,
  0xbf, 0x7f, 0x6c, 0x3b, 0x98, 0x5b, 0x59, 0x3b, 0x50, 0xbc, 0x18, 0x3b,
  0x12, 0x51, 0x86, 0x3b, 0x92, 0x79, 0xaf, 0x3b, 0x92, 0x92, 0xba, 0x3b,
  0x8d, 0x8b, 0x06, 0x3b, 0xb2, 0x18, 0x37, 0x3b, 0x7e, 0xa2, 0x77, 0x3b,
  0xaf, 0xa5, 0x80, 0x3b, 0x5a, 0x0b, 0x75, 0x3b, 0x5d, 0x27, 0x4f, 0x3b,
  0x6c, 0xb6, 0xa2, 0x3b, 0xe6, 0xab, 0x9c, 0x3b, 0x76, 0x6d, 0xac, 0x3b,
  0xec, 0xeb, 0x8a, 0x3b, 0x2c, 0x00, 0x00, 0x00, 0x61, 0x75, 0x74, 0x6f,
  0x65, 0x6e, 0x63, 0x6f, 0x64, 0x65, 0x72, 0x5f, 0x31, 0x2f, 0x64, 0x65,
  0x63, 0x6f, 0x64, 0x65, 0x72, 0x5f, 0x31, 0x2f, 0x64, 0x65, 0x63, 0x5f,
  0x64, 0x65, 0x6e, 0x73, 0x65, 0x5f, 0x30, 0x5f, 0x31, 0x2f, 0x4d, 0x61,
  0x74, 0x4d, 0x75, 0x6c, 0x00, 0x00, 0x00, 0x00, 0x02, 0x00, 0x00, 0x00,
  0x10, 0x00, 0x00, 0x00, 0x04, 0x00, 0x00, 0x00, 0xbe, 0xf9, 0xff, 0xff,
  0x00, 0x00, 0x00, 0x01, 0x14, 0x00, 0x00, 0x00, 0xe4, 0x00, 0x00, 0x00,
  0x06, 0x00, 0x00, 0x00, 0x00, 0x00, 0x00, 0x02, 0x38, 0x01, 0x00, 0x00,
  0xa4, 0xf8, 0xff, 0xff, 0x08, 0x00, 0x00, 0x00, 0x88, 0x00, 0x00, 0x00,
  0x10, 0x00, 0x00, 0x00, 0x00, 0x00, 0x00, 0x00, 0x00, 0x00, 0x00, 0x00,
  0x00, 0x00, 0x00, 0x00, 0x00, 0x00, 0x00, 0x00, 0x00, 0x00, 0x00, 0x00,
  0x00, 0x00, 0x00, 0x00, 0x00, 0x00, 0x00, 0x00, 0x00, 0x00, 0x00, 0x00,
  0x00, 0x00, 0x00, 0x00, 0x00, 0x00, 0x00, 0x00, 0x00, 0x00, 0x00, 0x00,
  0x00, 0x00, 0x00, 0x00, 0x00, 0x00, 0x00, 0x00, 0x00, 0x00, 0x00, 0x00,
  0x00, 0x00, 0x00, 0x00, 0x00, 0x00, 0x00, 0x00, 0x00, 0x00, 0x00, 0x00,
  0x00, 0x00, 0x00, 0x00, 0x00, 0x00, 0x00, 0x00, 0x00, 0x00, 0x00, 0x00,
  0x00, 0x00, 0x00, 0x00, 0x00, 0x00, 0x00, 0x00, 0x00, 0x00, 0x00, 0x00,
  0x00, 0x00, 0x00, 0x00, 0x00, 0x00, 0x00, 0x00, 0x00, 0x00, 0x00, 0x00,
  0x00, 0x00, 0x00, 0x00, 0x00, 0x00, 0x00, 0x00, 0x00, 0x00, 0x00, 0x00,
  0x00, 0x00, 0x00, 0x00, 0x00, 0x00, 0x00, 0x00, 0x00, 0x00, 0x00, 0x00,
  0x10, 0x00, 0x00, 0x00, 0xda, 0xe5, 0x71, 0x39, 0xd7, 0x51, 0x5e, 0x39,
  0xe7, 0x38, 0x1c, 0x39, 0x05, 0x62, 0x89, 0x39, 0x0d, 0x7b, 0xb3, 0x39,
  0xe8, 0xd4, 0xbe, 0x39, 0xd6, 0x9d, 0x09, 0x39, 0xb7, 0x46, 0x3b, 0x39,
  0xad, 0x49, 0x7d, 0x39, 0x80, 0x95, 0x83, 0x39, 0x66, 0xa3, 0x7a, 0x39,
  0xfa, 0xe1, 0x53, 0x39, 0x51, 0x6d, 0xa6, 0x39, 0x7e, 0x3f, 0xa0, 0x39,
  0x22, 0x5d, 0xb0, 0x39, 0xc8, 0x17, 0x8e, 0x39, 0x58, 0x00, 0x00, 0x00,
  0x61, 0x75, 0x74, 0x6f, 0x65, 0x6e, 0x63, 0x6f, 0x64, 0x65, 0x72, 0x5f,
  0x31, 0x2f, 0x64, 0x65, 0x63, 0x6f, 0x64, 0x65, 0x72, 0x5f, 0x31, 0x2f,
  0x64, 0x65, 0x63, 0x5f, 0x64, 0x65, 0x6e, 0x73, 0x65, 0x5f, 0x30, 0x5f,
  0x31, 0x2f, 0x52, 0x65, 0x6c, 0x75, 0x3b, 0x61, 0x75, 0x74, 0x6f, 0x65,
  0x6e, 0x63, 0x6f, 0x64, 0x65, 0x72, 0x5f, 0x31, 0x2f, 0x64, 0x65, 0x63,
  0x6f, 0x64, 0x65, 0x72, 0x5f, 0x31, 0x2f, 0x64, 0x65, 0x63, 0x5f, 0x64,
  0x65, 0x6e, 0x73, 0x65, 0x5f, 0x30, 0x5f, 0x31, 0x2f, 0x42, 0x69, 0x61,
  0x73, 0x41, 0x64, 0x64, 0x00, 0x00, 0x00, 0x00, 0x01, 0x00, 0x00, 0x00,
  0x10, 0x00, 0x00, 0x00, 0x16, 0xfb, 0xff, 0xff, 0x00, 0x00, 0x00, 0x01,
  0x14, 0x00, 0x00, 0x00, 0xa4, 0x01, 0x00, 0x00, 0x05, 0x00, 0x00, 0x00,
  0x00, 0x00, 0x00, 0x09, 0xcc, 0x01, 0x00, 0x00, 0xfc, 0xf9, 0xff, 0xff,
  0x08, 0x00, 0x00, 0x00, 0x08, 0x01, 0x00, 0x00, 0x20, 0x00, 0x00, 0x00,
  0x00, 0x00, 0x00, 0x00, 0x00, 0x00, 0x00, 0x00, 0x00, 0x00, 0x00, 0x00,
  0x00, 0x00, 0x00, 0x00, 0x00, 0x00, 0x00, 0x00, 0x00, 0x00, 0x00, 0x00,
  0x00, 0x00, 0x00, 0x00, 0x00, 0x00, 0x00, 0x00, 0x00, 0x00, 0x00, 0x00,
  0x00, 0x00, 0x00, 0x00, 0x00, 0x00, 0x00, 0x00, 0x00, 0x00, 0x00, 0x00,
  0x00, 0x00, 0x00, 0x00, 0x00, 0x00, 0x00, 0x00, 0x00, 0x00, 0x00, 0x00,
  0x00, 0x00, 0x00, 0x00, 0x00, 0x00, 0x00, 0x00, 0x00, 0x00, 0x00, 0x00,
  0x00, 0x00, 0x00, 0x00, 0x00, 0x00, 0x00, 0x00, 0x00, 0x00, 0x00, 0x00,
  0x00, 0x00, 0x00, 0x00, 0x00, 0x00, 0x00, 0x00, 0x00, 0x00, 0x00, 0x00,
  0x00, 0x00, 0x00, 0x00, 0x00, 0x00, 0x00, 0x00, 0x00, 0x00, 0x00, 0x00,
  0x00, 0x00, 0x00, 0x00, 0x00, 0x00, 0x00, 0x00, 0x00, 0x00, 0x00, 0x00,
  0x00, 0x00, 0x00, 0x00, 0x00, 0x00, 0x00, 0x00, 0x00, 0x00, 0x00, 0x00,
  0x00, 0x00, 0x00, 0x00, 0x00, 0x00, 0x00, 0x00, 0x00, 0x00, 0x00, 0x00,
  0x00, 0x00, 0x00, 0x00, 0x00, 0x00, 0x00, 0x00, 0x00, 0x00, 0x00, 0x00,
  0x00, 0x00, 0x00, 0x00, 0x00, 0x00, 0x00, 0x00, 0x00, 0x00, 0x00, 0x00,
  0x00, 0x00, 0x00, 0x00, 0x00, 0x00, 0x00, 0x00, 0x00, 0x00, 0x00, 0x00,
  0x00, 0x00, 0x00, 0x00, 0x00, 0x00, 0x00, 0x00, 0x00, 0x00, 0x00, 0x00,
  0x00, 0x00, 0x00, 0x00, 0x00, 0x00, 0x00, 0x00, 0x00, 0x00, 0x00, 0x00,
  0x00, 0x00, 0x00, 0x00, 0x00, 0x00, 0x00, 0x00, 0x00, 0x00, 0x00, 0x00,
  0x00, 0x00, 0x00, 0x00, 0x00, 0x00, 0x00, 0x00, 0x00, 0x00, 0x00, 0x00,
  0x00, 0x00, 0x00, 0x00, 0x00, 0x00, 0x00, 0x00, 0x00, 0x00, 0x00, 0x00,
  0x00, 0x00, 0x00, 0x00, 0x00, 0x00, 0x00, 0x00, 0x00, 0x00, 0x00, 0x00,
  0x00, 0x00, 0x00, 0x00, 0x20, 0x00, 0x00, 0x00, 0x96, 0xc1, 0x82, 0x3b,
  0x94, 0x22, 0x35, 0x3b, 0x60, 0x66, 0x45, 0x3b, 0xa1, 0x08, 0x9b, 0x3b,
  0x1c, 0x11, 0x3e, 0x3b, 0xe7, 0x45, 0x54, 0x3b, 0xde, 0x04, 0x2b, 0x3b,
  0xa9, 0x60, 0x40, 0x3b, 0x38, 0xf0, 0x35, 0x3b, 0xa9, 0x74, 0x07, 0x3b,
  0x0a, 0x92, 0x2e, 0x3b, 0x74, 0x26, 0x37, 0x3b, 0x9c, 0x4d, 0x6d, 0x3b,
  0x95, 0x22, 0x88, 0x3b, 0x63, 0x8b, 0x43, 0x3b, 0xd2, 0x74, 0xb8, 0x3b,
  0xc8, 0x82, 0x3a, 0x3b, 0xb6, 0x68, 0x8e, 0x3b, 0x17, 0x22, 0x93, 0x3b,
  0x3a, 0x15, 0x25, 0x3b, 0x9b, 0xee, 0x33, 0x3b, 0x13, 0xb0, 0x77, 0x3b,
  0xdf, 0xae, 0x31, 0x3b, 0x39, 0xa1, 0x32, 0x3b, 0x17, 0xc9, 0x47, 0x3b,
  0xdb, 0x8b, 0x3e, 0x3b, 0xcd, 0x10, 0x9d, 0x3b, 0x1a, 0x25, 0x9b, 0x3b,
  0x05, 0xfa, 0x33, 0x3b, 0xa1, 0x33, 0x1d, 0x3b, 0x50, 0x67, 0x83, 0x3b,
  0x74, 0xce, 0x8e, 0x3b, 0x2c, 0x00, 0x00, 0x00, 0x61, 0x75, 0x74, 0x6f,
  0x65, 0x6e, 0x63, 0x6f, 0x64, 0x65, 0x72, 0x5f, 0x31, 0x2f, 0x64, 0x65,
  0x63, 0x6f, 0x64, 0x65, 0x72, 0x5f, 0x31, 0x2f, 0x64, 0x65, 0x63, 0x5f,
  0x64, 0x65, 0x6e, 0x73, 0x65, 0x5f, 0x31, 0x5f, 0x31, 0x2f, 0x4d, 0x61,
  0x74, 0x4d, 0x75, 0x6c, 0x00, 0x00, 0x00, 0x00, 0x02, 0x00, 0x00, 0x00,
  0x20, 0x00, 0x00, 0x00, 0x10, 0x00, 0x00, 0x00, 0x06, 0xfd, 0xff, 0xff,
  0x00, 0x00, 0x00, 0x01, 0x14, 0x00, 0x00, 0x00, 0xa4, 0x01, 0x00, 0x00,
  0x04, 0x00, 0x00, 0x00, 0x00, 0x00, 0x00, 0x02, 0xf8, 0x01, 0x00, 0x00,
  0xec, 0xfb, 0xff, 0xff, 0x08, 0x00, 0x00, 0x00, 0x08, 0x01, 0x00, 0x00,
  0x20, 0x00, 0x00, 0x00, 0x00, 0x00, 0x00, 0x00, 0x00, 0x00, 0x00, 0x00,
  0x00, 0x00, 0x00, 0x00, 0x00, 0x00, 0x00, 0x00, 0x00, 0x00, 0x00, 0x00,
  0x00, 0x00, 0x00, 0x00, 0x00, 0x00, 0x00, 0x00, 0x00, 0x00, 0x00, 0x00,
  0x00, 0x00, 0x00, 0x00, 0x00, 0x00, 0x00, 0x00, 0x00, 0x00, 0x00, 0x00,
  0x00, 0x00, 0x00, 0x00, 0x00, 0x00, 0x00, 0x00, 0x00, 0x00, 0x00, 0x00,
  0x00, 0x00, 0x00, 0x00, 0x00, 0x00, 0x00, 0x00, 0x00, 0x00, 0x00, 0x00,
  0x00, 0x00, 0x00, 0x00, 0x00, 0x00, 0x00, 0x00, 0x00, 0x00, 0x00, 0x00,
  0x00, 0x00, 0x00, 0x00, 0x00, 0x00, 0x00, 0x00, 0x00, 0x00, 0x00, 0x00,
  0x00, 0x00, 0x00, 0x00, 0x00, 0x00, 0x00, 0x00, 0x00, 0x00, 0x00, 0x00,
  0x00, 0x00, 0x00, 0x00, 0x00, 0x00, 0x00, 0x00, 0x00, 0x00, 0x00, 0x00,
  0x00, 0x00, 0x00, 0x00, 0x00, 0x00, 0x00, 0x00, 0x00, 0x00, 0x00, 0x00,
  0x00, 0x00, 0x00, 0x00, 0x00, 0x00, 0x00, 0x00, 0x00, 0x00, 0x00, 0x00,
  0x00, 0x00, 0x00, 0x00, 0x00, 0x00, 0x00, 0x00, 0x00, 0x00, 0x00, 0x00,
  0x00, 0x00, 0x00, 0x00, 0x00, 0x00, 0x00, 0x00, 0x00, 0x00, 0x00, 0x00,
  0x00, 0x00, 0x00, 0x00, 0x00, 0x00, 0x00, 0x00, 0x00, 0x00, 0x00, 0x00,
  0x00, 0x00, 0x00, 0x00, 0x00, 0x00, 0x00, 0x00, 0x00, 0x00, 0x00, 0x00,
  0x00, 0x00, 0x00, 0x00, 0x00, 0x00, 0x00, 0x00, 0x00, 0x00, 0x00, 0x00,
  0x00, 0x00, 0x00, 0x00, 0x00, 0x00, 0x00, 0x00, 0x00, 0x00, 0x00, 0x00,
  0x00, 0x00, 0x00, 0x00, 0x00, 0x00, 0x00, 0x00, 0x00, 0x00, 0x00, 0x00,
  0x00, 0x00, 0x00, 0x00, 0x00, 0x00, 0x00, 0x00, 0x00, 0x00, 0x00, 0x00,
  0x00, 0x00, 0x00, 0x00, 0x00, 0x00, 0x00, 0x00, 0x00, 0x00, 0x00, 0x00,
  0x00, 0x00, 0x00, 0x00, 0x00, 0x00, 0x00, 0x00, 0x20, 0x00, 0x00, 0x00,
  0x33, 0x31, 0x7f, 0x39, 0xe6, 0xc1, 0x30, 0x39, 0x11, 0xa1, 0x40, 0x39,
  0x70, 0x49, 0x97, 0x39, 0x2b, 0x79, 0x39, 0x39, 0x93, 0x24, 0x4f, 0x39,
  0xc7, 0xe2, 0x26, 0x39, 0x6c, 0xba, 0x3b, 0x39, 0x92, 0x8a, 0x31, 0x39,
  0x99, 0x2e, 0x04, 0x39, 0xfa, 0x59, 0x2a, 0x39, 0x4e, 0xb9, 0x32, 0x39,
  0x6b, 0x91, 0x67, 0x39, 0x51, 0xd8, 0x84, 0x39, 0x8f, 0xd1, 0x3e, 0x39,
  0x98, 0xff, 0xb3, 0x39, 0xd8, 0x00, 0x36, 0x39, 0xa1, 0xf7, 0x8a, 0x39,
  0xc8, 0x93, 0x8f, 0x39, 0xdd, 0x17, 0x21, 0x39, 0x5f, 0x95, 0x2f, 0x39,
  0xa2, 0xb3, 0x71, 0x39, 0x8d, 0x63, 0x2d, 0x39, 0x0b, 0x50, 0x2e, 0x39,
  0x05, 0xf5, 0x42, 0x39, 0xf3, 0xf0, 0x39, 0x39, 0x0a, 0x45, 0x99, 0x39,
  0x39, 0x65, 0x97, 0x39, 0x82, 0xa0, 0x2f, 0x39, 0x06, 0x67, 0x19, 0x39,
  0x52, 0x3a, 0x80, 0x39, 0xea, 0x5a, 0x8b, 0x39, 0x58, 0x00, 0x00, 0x00,
  0x61, 0x75, 0x74, 0x6f, 0x65, 0x6e, 0x63, 0x6f, 0x64, 0x65, 0x72, 0x5f,
  0x31, 0x2f, 0x64, 0x65, 0x63, 0x6f, 0x64, 0x65, 0x72, 0x5f, 0x31, 0x2f,
  0x64, 0x65, 0x63, 0x5f, 0x64, 0x65, 0x6e, 0x73, 0x65, 0x5f, 0x31, 0x5f,
  0x31, 0x2f, 0x52, 0x65, 0x6c, 0x75, 0x3b, 0x61, 0x75, 0x74, 0x6f, 0x65,
  0x6e, 0x63, 0x6f, 0x64, 0x65, 0x72, 0x5f, 0x31, 0x2f, 0x64, 0x65, 0x63,
  0x6f, 0x64, 0x65, 0x72, 0x5f, 0x31, 0x2f, 0x64, 0x65, 0x63, 0x5f, 0x64,
  0x65, 0x6e, 0x73, 0x65, 0x5f, 0x31, 0x5f, 0x31, 0x2f, 0x42, 0x69, 0x61,
  0x73, 0x41, 0x64, 0x64, 0x00, 0x00, 0x00, 0x00, 0x01, 0x00, 0x00, 0x00,
  0x20, 0x00, 0x00, 0x00, 0x1e, 0xff, 0xff, 0xff, 0x00, 0x00, 0x00, 0x01,
  0x14, 0x00, 0x00, 0x00, 0x94, 0x00, 0x00, 0x00, 0x03, 0x00, 0x00, 0x00,
  0x00, 0x00, 0x00, 0x09, 0xbc, 0x00, 0x00, 0x00, 0x04, 0xfe, 0xff, 0xff,
  0x08, 0x00, 0x00, 0x00, 0x54, 0x00, 0x00, 0x00, 0x09, 0x00, 0x00, 0x00,
  0x00, 0x00, 0x00, 0x00, 0x00, 0x00, 0x00, 0x00, 0x00, 0x00, 0x00, 0x00,
  0x00, 0x00, 0x00, 0x00, 0x00, 0x00, 0x00, 0x00, 0x00, 0x00, 0x00, 0x00,
  0x00, 0x00, 0x00, 0x00, 0x00, 0x00, 0x00, 0x00, 0x00, 0x00, 0x00, 0x00,
  0x00, 0x00, 0x00, 0x00, 0x00, 0x00, 0x00, 0x00, 0x00, 0x00, 0x00, 0x00,
  0x00, 0x00, 0x00, 0x00, 0x00, 0x00, 0x00, 0x00, 0x00, 0x00, 0x00, 0x00,
  0x00, 0x00, 0x00, 0x00, 0x00, 0x00, 0x00, 0x00, 0x00, 0x00, 0x00, 0x00,
  0x00, 0x00, 0x00, 0x00, 0x09, 0x00, 0x00, 0x00, 0xf3, 0x47, 0x95, 0x3b,
  0x96, 0xad, 0x75, 0x3b, 0x86, 0x69, 0x91, 0x3b, 0x17, 0x0f, 0xaa, 0x3b,
  0xb8, 0x12, 0x82, 0x3b, 0xa0, 0xcc, 0x6e, 0x3b, 0x41, 0x17, 0x76, 0x3b,
  0xfb, 0x8f, 0x8c, 0x3b, 0x9f, 0xd3, 0x7d, 0x3b, 0x2f, 0x00, 0x00, 0x00,
  0x61, 0x75, 0x74, 0x6f, 0x65, 0x6e, 0x63, 0x6f, 0x64, 0x65, 0x72, 0x5f,
  0x31, 0x2f, 0x64, 0x65, 0x63, 0x6f, 0x64, 0x65, 0x72, 0x5f, 0x31, 0x2f,
  0x72, 0x65, 0x63, 0x6f, 0x6e, 0x73, 0x74, 0x72, 0x75, 0x63, 0x74, 0x69,
  0x6f, 0x6e, 0x5f, 0x31, 0x2f, 0x4d, 0x61, 0x74, 0x4d, 0x75, 0x6c, 0x00,
  0x02, 0x00, 0x00, 0x00, 0x09, 0x00, 0x00, 0x00, 0x20, 0x00, 0x00, 0x00,
  0x00, 0x00, 0x16, 0x00, 0x1c, 0x00, 0x18, 0x00, 0x17, 0x00, 0x10, 0x00,
  0x0c, 0x00, 0x08, 0x00, 0x00, 0x00, 0x00, 0x00, 0x00, 0x00, 0x07, 0x00,
  0x16, 0x00, 0x00, 0x00, 0x00, 0x00, 0x00, 0x01, 0x14, 0x00, 0x00, 0x00,
  0x90, 0x00, 0x00, 0x00, 0x02, 0x00, 0x00, 0x00, 0x00, 0x00, 0x00, 0x02,
  0xbc, 0x00, 0x00, 0x00, 0xfc, 0xfe, 0xff, 0xff, 0x08, 0x00, 0x00, 0x00,
  0x50, 0x00, 0x00, 0x00, 0x09, 0x00, 0x00, 0x00, 0x00, 0x00, 0x00, 0x00,
  0x00, 0x00, 0x00, 0x00, 0x00, 0x00, 0x00, 0x00, 0x00, 0x00, 0x00, 0x00,
  0x00, 0x00, 0x00, 0x00, 0x00, 0x00, 0x00, 0x00, 0x00, 0x00, 0x00, 0x00,
  0x00, 0x00, 0x00, 0x00, 0x00, 0x00, 0x00, 0x00, 0x00, 0x00, 0x00, 0x00,
  0x00, 0x00, 0x00, 0x00, 0x00, 0x00, 0x00, 0x00, 0x00, 0x00, 0x00, 0x00,
  0x00, 0x00, 0x00, 0x00, 0x00, 0x00, 0x00, 0x00, 0x00, 0x00, 0x00, 0x00,
  0x00, 0x00, 0x00, 0x00, 0x00, 0x00, 0x00, 0x00, 0x09, 0x00, 0x00, 0x00,
  0x5c, 0x6f, 0x49, 0x39, 0x48, 0xc1, 0x25, 0x39, 0xe9, 0x36, 0x44, 0x39,
  0xd6, 0x78, 0x65, 0x39, 0x35, 0x84, 0x2f, 0x39, 0x30, 0x1d, 0x21, 0x39,
  0x93, 0x08, 0x26, 0x39, 0x9d, 0xab, 0x3d, 0x39, 0xb2, 0x40, 0x2b, 0x39,
  0x30, 0x00, 0x00, 0x00, 0x61, 0x75, 0x74, 0x6f, 0x65, 0x6e, 0x63, 0x6f,
  0x64, 0x65, 0x72, 0x5f, 0x31, 0x2f, 0x64, 0x65, 0x63, 0x6f, 0x64, 0x65,
  0x72, 0x5f, 0x31, 0x2f, 0x72, 0x65, 0x63, 0x6f, 0x6e, 0x73, 0x74, 0x72,
  0x75, 0x63, 0x74, 0x69, 0x6f, 0x6e, 0x5f, 0x31, 0x2f, 0x42, 0x69, 0x61,
  0x73, 0x41, 0x64, 0x64, 0x00, 0x00, 0x00, 0x00, 0x01, 0x00, 0x00, 0x00,
  0x09, 0x00, 0x00, 0x00, 0x00, 0x00, 0x16, 0x00, 0x20, 0x00, 0x1c, 0x00,
  0x1b, 0x00, 0x14, 0x00, 0x10, 0x00, 0x0c, 0x00, 0x00, 0x00, 0x00, 0x00,
  0x08, 0x00, 0x07, 0x00, 0x16, 0x00, 0x00, 0x00, 0x00, 0x00, 0x00, 0x01,
  0x18, 0x00, 0x00, 0x00, 0x2c, 0x00, 0x00, 0x00, 0x48, 0x00, 0x00, 0x00,
  0x01, 0x00, 0x00, 0x00, 0x00, 0x00, 0x00, 0x09, 0x5c, 0x00, 0x00, 0x00,
  0x02, 0x00, 0x00, 0x00, 0xff, 0xff, 0xff, 0xff, 0x09, 0x00, 0x00, 0x00,
  0x0c, 0x00, 0x0c, 0x00, 0x00, 0x00, 0x00, 0x00, 0x08, 0x00, 0x04, 0x00,
  0x0c, 0x00, 0x00, 0x00, 0x08, 0x00, 0x00, 0x00, 0x10, 0x00, 0x00, 0x00,
  0x01, 0x00, 0x00, 0x00, 0xc9, 0xff, 0xff, 0xff, 0xff, 0xff, 0xff, 0xff,
  0x01, 0x00, 0x00, 0x00, 0x5e, 0x78, 0x30, 0x3d, 0x1a, 0x00, 0x00, 0x00,
  0x73, 0x65, 0x72, 0x76, 0x69, 0x6e, 0x67, 0x5f, 0x64, 0x65, 0x66, 0x61,
  0x75, 0x6c, 0x74, 0x5f, 0x61, 0x65, 0x5f, 0x69, 0x6e, 0x70, 0x75, 0x74,
  0x3a, 0x30, 0x00, 0x00, 0x02, 0x00, 0x00, 0x00, 0x01, 0x00, 0x00, 0x00,
  0x09, 0x00, 0x00, 0x00, 0x01, 0x00, 0x00, 0x00, 0x10, 0x00, 0x00, 0x00,
  0x0c, 0x00, 0x10, 0x00, 0x0f, 0x00, 0x00, 0x00, 0x08, 0x00, 0x04, 0x00,
  0x0c, 0x00, 0x00, 0x00, 0x09, 0x00, 0x00, 0x00, 0x04, 0x00, 0x00, 0x00,
  0x00, 0x00, 0x00, 0x09
};
unsigned int cwru_autoencoder_quant8_tflite_len = 9040;
